{
  "version": "1.0",
  "truncation": null,
  "padding": null,
  "added_tokens": [
    {
      "id": 0,
      "content": "[UNK]",
      "single_word": false,
      "lstrip": false,
      "rstrip": false,
      "normalized": false,
      "special": true
    },
    {
      "id": 1,
      "content": "[CLS]",
      "single_word": false,
      "lstrip": false,
      "rstrip": false,
      "normalized": false,
      "special": true
    },
    {
      "id": 2,
      "content": "[SEP]",
      "single_word": false,
      "lstrip": false,
      "rstrip": false,
      "normalized": false,
      "special": true
    },
    {
      "id": 3,
      "content": "[PAD]",
      "single_word": false,
      "lstrip": false,
      "rstrip": false,
      "normalized": false,
      "special": true
    },
    {
      "id": 4,
      "content": "[MASK]",
      "single_word": false,
      "lstrip": false,
      "rstrip": false,
      "normalized": false,
      "special": true
    }
  ],
  "normalizer": null,
  "pre_tokenizer": {
    "type": "Whitespace"
  },
  "post_processor": null,
  "decoder": null,
  "model": {
    "type": "BPE",
    "dropout": null,
    "unk_token": "[UNK]",
    "continuing_subword_prefix": null,
    "end_of_word_suffix": null,
    "fuse_unk": false,
    "byte_fallback": false,
    "ignore_merges": false,
    "vocab": {
      "[UNK]": 0,
      "[CLS]": 1,
      "[SEP]": 2,
      "[PAD]": 3,
      "[MASK]": 4,
      "!": 5,
      "#": 6,
      "$": 7,
      "&": 8,
      "'": 9,
      "(": 10,
      ")": 11,
      "*": 12,
      "+": 13,
      ",": 14,
      "-": 15,
      ".": 16,
      "/": 17,
      "0": 18,
      "1": 19,
      "2": 20,
      "3": 21,
      "4": 22,
      "5": 23,
      "6": 24,
      "7": 25,
      "8": 26,
      "9": 27,
      ":": 28,
      ";": 29,
      "=": 30,
      "?": 31,
      "`": 32,
      "a": 33,
      "b": 34,
      "c": 35,
      "d": 36,
      "e": 37,
      "f": 38,
      "g": 39,
      "h": 40,
      "i": 41,
      "j": 42,
      "k": 43,
      "l": 44,
      "m": 45,
      "n": 46,
      "o": 47,
      "p": 48,
      "q": 49,
      "r": 50,
      "s": 51,
      "t": 52,
      "u": 53,
      "v": 54,
      "w": 55,
      "x": 56,
      "y": 57,
      "z": 58,
      "á": 59,
      "â": 60,
      "ã": 61,
      "æ": 62,
      "è": 63,
      "é": 64,
      "í": 65,
      "ï": 66,
      "ñ": 67,
      "ó": 68,
      "ü": 69,
      "th": 70,
      "in": 71,
      "an": 72,
      "er": 73,
      "re": 74,
      "en": 75,
      "the": 76,
      "at": 77,
      "on": 78,
      "ing": 79,
      "st": 80,
      "or": 81,
      "it": 82,
      "al": 83,
      "is": 84,
      "and": 85,
      "es": 86,
      "ou": 87,
      "ar": 88,
      "of": 89,
      "ly": 90,
      "to": 91,
      "ed": 92,
      "ic": 93,
      "le": 94,
      "as": 95,
      "om": 96,
      "il": 97,
      "ch": 98,
      "el": 99,
      "mo": 100,
      "ct": 101,
      "ent": 102,
      "ion": 103,
      "be": 104,
      "se": 105,
      "un": 106,
      "ve": 107,
      "im": 108,
      "that": 109,
      "ra": 110,
      "de": 111,
      "ul": 112,
      "lo": 113,
      "ab": 114,
      "gh": 115,
      "vi": 116,
      "for": 117,
      "ma": 118,
      "li": 119,
      "ce": 120,
      "ver": 121,
      "ro": 122,
      "ut": 123,
      "su": 124,
      "wh": 125,
      "com": 126,
      "wi": 127,
      "no": 128,
      "fil": 129,
      "ad": 130,
      "ri": 131,
      "with": 132,
      "ess": 133,
      "film": 134,
      "am": 135,
      "di": 136,
      "sh": 137,
      "ke": 138,
      "act": 139,
      "la": 140,
      "ge": 141,
      "its": 142,
      "ol": 143,
      "fe": 144,
      "out": 145,
      "movi": 146,
      "ir": 147,
      "you": 148,
      "ers": 149,
      "ex": 150,
      "one": 151,
      "po": 152,
      "ter": 153,
      "movie": 154,
      "con": 155,
      "ous": 156,
      "pe": 157,
      "od": 158,
      "per": 159,
      "um": 160,
      "ful": 161,
      "ne": 162,
      "sc": 163,
      "do": 164,
      "ght": 165,
      "so": 166,
      "ive": 167,
      "art": 168,
      "ck": 169,
      "this": 170,
      "are": 171,
      "all": 172,
      "ant": 173,
      "em": 174,
      "ation": 175,
      "ther": 176,
      "go": 177,
      "ap": 178,
      "wor": 179,
      "qu": 180,
      "ta": 181,
      "but": 182,
      "ill": 183,
      "ay": 184,
      "able": 185,
      "ure": 186,
      "ally": 187,
      "man": 188,
      "rom": 189,
      "us": 190,
      "ur": 191,
      "pre": 192,
      "ag": 193,
      "sp": 194,
      "ate": 195,
      "id": 196,
      "..": 197,
      "he": 198,
      "char": 199,
      "ity": 200,
      "ome": 201,
      "ell": 202,
      "pro": 203,
      "we": 204,
      "ha": 205,
      "int": 206,
      "ory": 207,
      "by": 208,
      "ast": 209,
      "ld": 210,
      "some": 211,
      "not": 212,
      "tim": 213,
      "thing": 214,
      "ist": 215,
      "ust": 216,
      "end": 217,
      "more": 218,
      "ev": 219,
      "than": 220,
      "ough": 221,
      "fun": 222,
      "like": 223,
      "--": 224,
      "ow": 225,
      "ind": 226,
      "ine": 227,
      "ple": 228,
      "has": 229,
      "up": 230,
      "very": 231,
      "ig": 232,
      "most": 233,
      "ss": 234,
      "der": 235,
      "if": 236,
      "king": 237,
      "his": 238,
      "about": 239,
      "from": 240,
      "ence": 241,
      "cl": 242,
      "ru": 243,
      "bo": 244,
      "ts": 245,
      "itt": 246,
      "ight": 247,
      "charact": 248,
      "ich": 249,
      "ard": 250,
      "et": 251,
      "who": 252,
      "have": 253,
      "story": 254,
      "ould": 255,
      "au": 256,
      "ious": 257,
      "way": 258,
      "pt": 259,
      "less": 260,
      "ac": 261,
      "te": 262,
      "ial": 263,
      "tra": 264,
      "ish": 265,
      "good": 266,
      "gu": 267,
      "pla": 268,
      "ble": 269,
      "oun": 270,
      "ep": 271,
      "co": 272,
      "ces": 273,
      "our": 274,
      "wo": 275,
      "ny": 276,
      "any": 277,
      "her": 278,
      "rect": 279,
      "ong": 280,
      "hum": 281,
      "est": 282,
      "cre": 283,
      "direct": 284,
      "ment": 285,
      "into": 286,
      "ks": 287,
      "too": 288,
      "thr": 289,
      "fa": 290,
      "me": 291,
      "jo": 292,
      "pa": 293,
      "ry": 294,
      "ph": 295,
      "off": 296,
      "kes": 297,
      "mat": 298,
      "ins": 299,
      "fl": 300,
      "ies": 301,
      "comed": 302,
      "...": 303,
      "low": 304,
      "dra": 305,
      "ary": 306,
      "funny": 307,
      "mu": 308,
      "ating": 309,
      "op": 310,
      "ical": 311,
      "ass": 312,
      "ict": 313,
      "over": 314,
      "elf": 315,
      "even": 316,
      "ves": 317,
      "pr": 318,
      "dis": 319,
      "wn": 320,
      "time": 321,
      "ative": 322,
      "just": 323,
      "ense": 324,
      "old": 325,
      "ie": 326,
      "ire": 327,
      "plo": 328,
      "ear": 329,
      "tain": 330,
      "can": 331,
      "ise": 332,
      "perfor": 333,
      "gre": 334,
      "ick": 335,
      "characters": 336,
      "ens": 337,
      "ingly": 338,
      "sur": 339,
      "other": 340,
      "br": 341,
      "wer": 342,
      "ff": 343,
      "feel": 344,
      "comedy": 345,
      "what": 346,
      "ated": 347,
      "well": 348,
      "comp": 349,
      "tal": 350,
      "your": 351,
      "ness": 352,
      "ertain": 353,
      "ite": 354,
      "bad": 355,
      "wat": 356,
      "will": 357,
      "ice": 358,
      "performan": 359,
      "fre": 360,
      "inter": 361,
      "tt": 362,
      "mar": 363,
      "ound": 364,
      "scre": 365,
      "real": 366,
      "does": 367,
      "vis": 368,
      "gen": 369,
      "bl": 370,
      "fect": 371,
      "iz": 372,
      "ile": 373,
      "much": 374,
      "ide": 375,
      "ser": 376,
      "loo": 377,
      "min": 378,
      "ort": 379,
      "ot": 380,
      "des": 381,
      "age": 382,
      "ber": 383,
      "life": 384,
      "ach": 385,
      "sub": 386,
      "ving": 387,
      "their": 388,
      "litt": 389,
      "work": 390,
      "ash": 391,
      "del": 392,
      "af": 393,
      "little": 394,
      "every": 395,
      "ance": 396,
      "``": 397,
      "love": 398,
      "wr": 399,
      "heart": 400,
      "mer": 401,
      "''": 402,
      "play": 403,
      "ip": 404,
      "gra": 405,
      "spe": 406,
      "ster": 407,
      "make": 408,
      "ily": 409,
      "screen": 410,
      "gr": 411,
      "watch": 412,
      "vel": 413,
      "bet": 414,
      "ult": 415,
      "ran": 416,
      "best": 417,
      "entertain": 418,
      "imp": 419,
      "which": 420,
      "self": 421,
      "iv": 422,
      "du": 423,
      "director": 424,
      "fully": 425,
      "new": 426,
      "ef": 427,
      "been": 428,
      "mot": 429,
      "get": 430,
      "year": 431,
      "see": 432,
      "through": 433,
      "war": 434,
      "ling": 435,
      "sm": 436,
      "cess": 437,
      "ack": 438,
      "tri": 439,
      "cin": 440,
      "action": 441,
      "humor": 442,
      "ore": 443,
      "sy": 444,
      "ud": 445,
      "there": 446,
      "under": 447,
      "enough": 448,
      "ents": 449,
      "ions": 450,
      "only": 451,
      "ual": 452,
      "interest": 453,
      "my": 454,
      "je": 455,
      "ional": 456,
      "fam": 457,
      "joy": 458,
      "never": 459,
      "part": 460,
      "eng": 461,
      "ren": 462,
      "seem": 463,
      "ame": 464,
      "ably": 465,
      "made": 466,
      "makes": 467,
      "audi": 468,
      "cle": 469,
      "ho": 470,
      "them": 471,
      "cent": 472,
      "imag": 473,
      "something": 474,
      "come": 475,
      "movies": 476,
      "aut": 477,
      "down": 478,
      "ugh": 479,
      "sty": 480,
      "great": 481,
      "ors": 482,
      "lack": 483,
      "they": 484,
      "ning": 485,
      "elling": 486,
      "ob": 487,
      "was": 488,
      "cast": 489,
      "tur": 490,
      "spir": 491,
      "ild": 492,
      "right": 493,
      "inal": 494,
      "how": 495,
      "ject": 496,
      "day": 497,
      "pleas": 498,
      "laugh": 499,
      "press": 500,
      "own": 501,
      "row": 502,
      "vent": 503,
      "ang": 504,
      "long": 505,
      "cr": 506,
      "gent": 507,
      "character": 508,
      "point": 509,
      "bel": 510,
      "would": 511,
      "app": 512,
      "amer": 513,
      "emot": 514,
      "car": 515,
      "enjoy": 516,
      "drama": 517,
      "ty": 518,
      "plot": 519,
      "may": 520,
      "minut": 521,
      "ans": 522,
      "gue": 523,
      "tre": 524,
      "che": 525,
      "beaut": 526,
      "sense": 527,
      "ain": 528,
      "now": 529,
      "two": 530,
      "many": 531,
      "hard": 532,
      "bit": 533,
      "really": 534,
      "cial": 535,
      "ible": 536,
      "human": 537,
      "big": 538,
      "igh": 539,
      "performances": 540,
      "ever": 541,
      "worth": 542,
      "tru": 543,
      "aw": 544,
      "hol": 545,
      "ately": 546,
      "wood": 547,
      "fir": 548,
      "ved": 549,
      "filmma": 550,
      "cum": 551,
      "att": 552,
      "sat": 553,
      "oc": 554,
      "gy": 555,
      "ming": 556,
      "power": 557,
      "ign": 558,
      "ced": 559,
      "vie": 560,
      "surpr": 561,
      "light": 562,
      "ak": 563,
      "ying": 564,
      "intel": 565,
      "ations": 566,
      "pie": 567,
      "vers": 568,
      "cho": 569,
      "ature": 570,
      "stand": 571,
      "could": 572,
      "mon": 573,
      "sit": 574,
      "thrill": 575,
      "cept": 576,
      "films": 577,
      "peo": 578,
      "look": 579,
      "thin": 580,
      "pp": 581,
      "better": 582,
      "such": 583,
      "times": 584,
      "str": 585,
      "ci": 586,
      "scen": 587,
      "audience": 588,
      "av": 589,
      "ically": 590,
      "while": 591,
      "comes": 592,
      "cau": 593,
      "ark": 594,
      "back": 595,
      "ism": 596,
      "col": 597,
      "ually": 598,
      "people": 599,
      "being": 600,
      "ath": 601,
      "mind": 602,
      "pict": 603,
      "por": 604,
      "res": 605,
      "when": 606,
      "first": 607,
      "mem": 608,
      "ere": 609,
      "swe": 610,
      "ste": 611,
      "without": 612,
      "oft": 613,
      "world": 614,
      "both": 615,
      "cut": 616,
      "ull": 617,
      "ky": 618,
      "high": 619,
      "mis": 620,
      "arly": 621,
      "should": 622,
      "mom": 623,
      "nothing": 624,
      "cra": 625,
      "peri": 626,
      "intelli": 627,
      "show": 628,
      "cause": 629,
      "ft": 630,
      "acting": 631,
      "scri": 632,
      "cap": 633,
      "kind": 634,
      "far": 635,
      "still": 636,
      "ought": 637,
      "med": 638,
      "kid": 639,
      "care": 640,
      "entertaining": 641,
      "won": 642,
      "pect": 643,
      "writ": 644,
      "ner": 645,
      "antic": 646,
      "led": 647,
      "bu": 648,
      "tho": 649,
      "ates": 650,
      "often": 651,
      "dre": 652,
      "ca": 653,
      "arr": 654,
      "surpris": 655,
      "hor": 656,
      "clich": 657,
      "fresh": 658,
      "exc": 659,
      "pl": 660,
      "orig": 661,
      "ination": 662,
      "picture": 663,
      "run": 664,
      "turn": 665,
      "pers": 666,
      "script": 667,
      "cy": 668,
      "gi": 669,
      "original": 670,
      "performance": 671,
      "beauti": 672,
      "sequ": 673,
      "interesting": 674,
      "holly": 675,
      "gl": 676,
      "docum": 677,
      "document": 678,
      "comple": 679,
      "bre": 680,
      "ll": 681,
      "hist": 682,
      "mark": 683,
      "find": 684,
      "because": 685,
      "ian": 686,
      "fort": 687,
      "bro": 688,
      "da": 689,
      "also": 690,
      "mor": 691,
      "mi": 692,
      "alo": 693,
      "americ": 694,
      "sin": 695,
      "ction": 696,
      "tent": 697,
      "view": 698,
      "ings": 699,
      "hollywood": 700,
      "fla": 701,
      "another": 702,
      "istic": 703,
      "ward": 704,
      "suc": 705,
      "dialo": 706,
      "iness": 707,
      "hand": 708,
      "ged": 709,
      "eas": 710,
      "star": 711,
      "stru": 712,
      "ching": 713,
      "form": 714,
      "fi": 715,
      "hal": 716,
      "know": 717,
      "matic": 718,
      "wit": 719,
      "keep": 720,
      "sweet": 721,
      "umb": 722,
      "piece": 723,
      "minutes": 724,
      "vin": 725,
      "those": 726,
      "hour": 727,
      "sent": 728,
      "appe": 729,
      "after": 730,
      "ney": 731,
      "sho": 732,
      "dialogue": 733,
      "fore": 734,
      "wom": 735,
      "ences": 736,
      "where": 737,
      "perfect": 738,
      "pol": 739,
      "spirit": 740,
      "tr": 741,
      "ale": 742,
      "dit": 743,
      "visual": 744,
      "den": 745,
      "dict": 746,
      "try": 747,
      "sum": 748,
      "cult": 749,
      "tit": 750,
      "few": 751,
      "him": 752,
      "les": 753,
      "red": 754,
      "rel": 755,
      "gener": 756,
      "cinem": 757,
      "family": 758,
      "class": 759,
      "poss": 760,
      "cing": 761,
      "que": 762,
      "mus": 763,
      "sing": 764,
      "ross": 765,
      "thriller": 766,
      "dist": 767,
      "ages": 768,
      "romantic": 769,
      "cor": 770,
      "fin": 771,
      "cinemat": 772,
      "ni": 773,
      "stu": 774,
      "eless": 775,
      "tale": 776,
      "bra": 777,
      "might": 778,
      "ener": 779,
      "ms": 780,
      "ane": 781,
      "comm": 782,
      "fr": 783,
      "spect": 784,
      "ele": 785,
      "ering": 786,
      "ics": 787,
      "compelling": 788,
      "wonder": 789,
      "win": 790,
      "tou": 791,
      "actors": 792,
      "ality": 793,
      "lea": 794,
      "fas": 795,
      "want": 796,
      "ultim": 797,
      "using": 798,
      "thought": 799,
      "need": 800,
      "mater": 801,
      "effect": 802,
      "moments": 803,
      "person": 804,
      "mess": 805,
      "theat": 806,
      "cont": 807,
      "clever": 808,
      "here": 809,
      "vide": 810,
      "cons": 811,
      "cine": 812,
      "smart": 813,
      "cinema": 814,
      "sk": 815,
      "again": 816,
      "filmmak": 817,
      "satis": 818,
      "had": 819,
      "fascin": 820,
      "read": 821,
      "sex": 822,
      "rather": 823,
      "graph": 824,
      "half": 825,
      "bor": 826,
      "ously": 827,
      "ger": 828,
      "full": 829,
      "almost": 830,
      "expect": 831,
      "she": 832,
      "material": 833,
      "ys": 834,
      "going": 835,
      "ways": 836,
      "ey": 837,
      "did": 838,
      "take": 839,
      "ted": 840,
      "watching": 841,
      "documentary": 842,
      "youn": 843,
      "ends": 844,
      "ting": 845,
      "deep": 846,
      "put": 847,
      "anim": 848,
      "seen": 849,
      "ired": 850,
      "deli": 851,
      "pass": 852,
      "icul": 853,
      "log": 854,
      "making": 855,
      "rif": 856,
      "produ": 857,
      "talent": 858,
      "sim": 859,
      "ars": 860,
      "works": 861,
      "par": 862,
      "ds": 863,
      "experi": 864,
      "ween": 865,
      "cer": 866,
      "itself": 867,
      "line": 868,
      "wal": 869,
      "chan": 870,
      "dull": 871,
      "before": 872,
      "predict": 873,
      "were": 874,
      "delight": 875,
      "vo": 876,
      "moving": 877,
      "seems": 878,
      "give": 879,
      "ility": 880,
      "emotional": 881,
      "music": 882,
      "though": 883,
      "ree": 884,
      "ilar": 885,
      "quite": 886,
      "happ": 887,
      "ionally": 888,
      "these": 889,
      "rich": 890,
      "things": 891,
      "subject": 892,
      "satisf": 893,
      "ond": 894,
      "ship": 895,
      "portra": 896,
      "clo": 897,
      "master": 898,
      "style": 899,
      "fascinating": 900,
      "lot": 901,
      "diff": 902,
      "head": 903,
      "ason": 904,
      "super": 905,
      "scenes": 906,
      "child": 907,
      "rid": 908,
      "empt": 909,
      "between": 910,
      "dark": 911,
      "sens": 912,
      "stra": 913,
      "takes": 914,
      "face": 915,
      "feels": 916,
      "toge": 917,
      "ext": 918,
      "together": 919,
      "lish": 920,
      "direction": 921,
      "fail": 922,
      "young": 923,
      "list": 924,
      "sou": 925,
      "illi": 926,
      "aring": 927,
      "last": 928,
      "cas": 929,
      "ok": 930,
      "vid": 931,
      "video": 932,
      "mel": 933,
      "tran": 934,
      "engag": 935,
      "years": 936,
      "hilar": 937,
      "na": 938,
      "sad": 939,
      "yet": 940,
      "iting": 941,
      "american": 942,
      "zz": 943,
      "special": 944,
      "simp": 945,
      "kids": 946,
      "bar": 947,
      "lid": 948,
      "used": 949,
      "mid": 950,
      "ently": 951,
      "uni": 952,
      "io": 953,
      "ps": 954,
      "sed": 955,
      "hy": 956,
      "sl": 957,
      "ili": 958,
      "iment": 959,
      "ultimately": 960,
      "quir": 961,
      "sa": 962,
      "narr": 963,
      "use": 964,
      "explo": 965,
      "place": 966,
      "wa": 967,
      "main": 968,
      "ures": 969,
      "cru": 970,
      "ue": 971,
      "feature": 972,
      "iev": 973,
      "fri": 974,
      "allow": 975,
      "rare": 976,
      "comic": 977,
      "anything": 978,
      "warm": 979,
      "laughs": 980,
      "why": 981,
      "bal": 982,
      "aren": 983,
      "worst": 984,
      "ven": 985,
      "susp": 986,
      "fair": 987,
      "fine": 988,
      "pop": 989,
      "ific": 990,
      "ments": 991,
      "cinematic": 992,
      "experience": 993,
      "gence": 994,
      "ug": 995,
      "pain": 996,
      "enjoyable": 997,
      "appeal": 998,
      "least": 999,
      "gir": 1000,
      "impress": 1001,
      "solid": 1002,
      "antly": 1003,
      "fall": 1004,
      "prom": 1005,
      "val": 1006,
      "cliché": 1007,
      "away": 1008,
      "gets": 1009,
      "bly": 1010,
      "coun": 1011,
      "psy": 1012,
      "sil": 1013,
      "ider": 1014,
      "tting": 1015,
      "tic": 1016,
      "die": 1017,
      "summer": 1018,
      "ton": 1019,
      "charm": 1020,
      "entertainment": 1021,
      "beautiful": 1022,
      "predictable": 1023,
      "vol": 1024,
      "history": 1025,
      "dle": 1026,
      "hone": 1027,
      "amusing": 1028,
      "sometimes": 1029,
      "girl": 1030,
      "remark": 1031,
      "start": 1032,
      "intri": 1033,
      "genre": 1034,
      "done": 1035,
      "fant": 1036,
      "oper": 1037,
      "set": 1038,
      "itten": 1039,
      "suspense": 1040,
      "call": 1041,
      "telling": 1042,
      "sure": 1043,
      "mean": 1044,
      "intelligent": 1045,
      "flat": 1046,
      "pu": 1047,
      "ror": 1048,
      "success": 1049,
      "usu": 1050,
      "ord": 1051,
      "dead": 1052,
      "lin": 1053,
      "top": 1054,
      "prob": 1055,
      "strong": 1056,
      "gives": 1057,
      "ural": 1058,
      "ler": 1059,
      "twi": 1060,
      "serious": 1061,
      "insight": 1062,
      "prof": 1063,
      "subt": 1064,
      "writer": 1065,
      "son": 1066,
      "struct": 1067,
      "teen": 1068,
      "possible": 1069,
      "engaging": 1070,
      "advent": 1071,
      "complete": 1072,
      "narrative": 1073,
      "say": 1074,
      "once": 1075,
      "powerful": 1076,
      "hel": 1077,
      "vious": 1078,
      "short": 1079,
      "intelligence": 1080,
      "cou": 1081,
      "hold": 1082,
      "men": 1083,
      "three": 1084,
      "ket": 1085,
      "convin": 1086,
      "flick": 1087,
      "izing": 1088,
      "sch": 1089,
      "idea": 1090,
      "lu": 1091,
      "non": 1092,
      "wise": 1093,
      "soph": 1094,
      "theater": 1095,
      "ither": 1096,
      "same": 1097,
      "stud": 1098,
      "ieve": 1099,
      "women": 1100,
      "around": 1101,
      "energy": 1102,
      "lead": 1103,
      "tty": 1104,
      "screenplay": 1105,
      "surprisingly": 1106,
      "ban": 1107,
      "ities": 1108,
      "charming": 1109,
      "effort": 1110,
      "ody": 1111,
      "sentiment": 1112,
      "twist": 1113,
      "har": 1114,
      "actor": 1115,
      "capt": 1116,
      "iet": 1117,
      "actually": 1118,
      "polit": 1119,
      "blo": 1120,
      "sor": 1121,
      "ref": 1122,
      "orge": 1123,
      "ia": 1124,
      "als": 1125,
      "contri": 1126,
      "serv": 1127,
      "fel": 1128,
      "lar": 1129,
      "wast": 1130,
      "ening": 1131,
      "stre": 1132,
      "level": 1133,
      "ime": 1134,
      "equ": 1135,
      "feeling": 1136,
      "ceed": 1137,
      "anyone": 1138,
      "bur": 1139,
      "certain": 1140,
      "ustr": 1141,
      "looking": 1142,
      "ric": 1143,
      "written": 1144,
      "true": 1145,
      "past": 1146,
      "ories": 1147,
      "filmmaking": 1148,
      "think": 1149,
      "nearly": 1150,
      "dramatic": 1151,
      "19": 1152,
      "dy": 1153,
      "moder": 1154,
      "sci": 1155,
      "gic": 1156,
      "fo": 1157,
      "coming": 1158,
      "pretty": 1159,
      "grand": 1160,
      "small": 1161,
      "satisfying": 1162,
      "ized": 1163,
      "bas": 1164,
      "dep": 1165,
      "famili": 1166,
      "silly": 1167,
      "familiar": 1168,
      "zy": 1169,
      "dumb": 1170,
      "ute": 1171,
      "ending": 1172,
      "culture": 1173,
      "hilarious": 1174,
      "honest": 1175,
      "stuff": 1176,
      "modern": 1177,
      "deser": 1178,
      "fash": 1179,
      "sound": 1180,
      "beg": 1181,
      "soul": 1182,
      "simply": 1183,
      "fashion": 1184,
      "ked": 1185,
      "ula": 1186,
      "whose": 1187,
      "sequel": 1188,
      "viol": 1189,
      "manages": 1190,
      "reason": 1191,
      "ited": 1192,
      "suff": 1193,
      "sign": 1194,
      "uine": 1195,
      "lect": 1196,
      "ability": 1197,
      "ively": 1198,
      "goes": 1199,
      "tail": 1200,
      "drag": 1201,
      "genuine": 1202,
      "imagin": 1203,
      "truly": 1204,
      "gar": 1205,
      "ird": 1206,
      "odra": 1207,
      "scar": 1208,
      "hero": 1209,
      "offers": 1210,
      "affect": 1211,
      "dam": 1212,
      "mise": 1213,
      "vision": 1214,
      "differ": 1215,
      "fra": 1216,
      "dream": 1217,
      "easy": 1218,
      "deeply": 1219,
      "cal": 1220,
      "cise": 1221,
      "ek": 1222,
      "then": 1223,
      "ones": 1224,
      "edly": 1225,
      "hop": 1226,
      "night": 1227,
      "nice": 1228,
      "stri": 1229,
      "ital": 1230,
      "ults": 1231,
      "conf": 1232,
      "project": 1233,
      "fans": 1234,
      "ned": 1235,
      "ze": 1236,
      "stran": 1237,
      "terrif": 1238,
      "artist": 1239,
      "melodra": 1240,
      "psycho": 1241,
      "fol": 1242,
      "thor": 1243,
      "ational": 1244,
      "whole": 1245,
      "slow": 1246,
      "always": 1247,
      "flaw": 1248,
      "pur": 1249,
      "becomes": 1250,
      "gri": 1251,
      "tv": 1252,
      "unch": 1253,
      "uring": 1254,
      "minute": 1255,
      "complex": 1256,
      "portrait": 1257,
      "utter": 1258,
      "gest": 1259,
      "poor": 1260,
      "believ": 1261,
      "horror": 1262,
      "effects": 1263,
      "land": 1264,
      "tone": 1265,
      "ured": 1266,
      "premise": 1267,
      "proble": 1268,
      "stead": 1269,
      "beautifully": 1270,
      "trying": 1271,
      "port": 1272,
      "iven": 1273,
      "since": 1274,
      "quirky": 1275,
      "sel": 1276,
      "sol": 1277,
      "icks": 1278,
      "mix": 1279,
      "passion": 1280,
      "dro": 1281,
      "orable": 1282,
      "itch": 1283,
      "exam": 1284,
      "brilli": 1285,
      "filmmakers": 1286,
      "ready": 1287,
      "cur": 1288,
      "abo": 1289,
      "formula": 1290,
      "consider": 1291,
      "gn": 1292,
      "wild": 1293,
      "entire": 1294,
      "und": 1295,
      "likely": 1296,
      "mur": 1297,
      "ery": 1298,
      "ese": 1299,
      "gely": 1300,
      "particul": 1301,
      "amp": 1302,
      "invent": 1303,
      "lap": 1304,
      "pleasure": 1305,
      "cially": 1306,
      "title": 1307,
      "touch": 1308,
      "10": 1309,
      "rele": 1310,
      "ride": 1311,
      "romance": 1312,
      "series": 1313,
      "understand": 1314,
      "treat": 1315,
      "situ": 1316,
      "heav": 1317,
      "velop": 1318,
      "hours": 1319,
      "probably": 1320,
      "ding": 1321,
      "ken": 1322,
      "secon": 1323,
      "everyone": 1324,
      "import": 1325,
      "logical": 1326,
      "children": 1327,
      "study": 1328,
      "lit": 1329,
      "nature": 1330,
      "espe": 1331,
      "appoint": 1332,
      "nor": 1333,
      "pat": 1334,
      "ons": 1335,
      "beat": 1336,
      "guing": 1337,
      "ideas": 1338,
      "classic": 1339,
      "subtle": 1340,
      "fire": 1341,
      "inspir": 1342,
      "itation": 1343,
      "odd": 1344,
      "tech": 1345,
      "touching": 1346,
      "felt": 1347,
      "refresh": 1348,
      "attra": 1349,
      "dest": 1350,
      "live": 1351,
      "extra": 1352,
      "posit": 1353,
      "creep": 1354,
      "fantas": 1355,
      "pac": 1356,
      "vor": 1357,
      "exer": 1358,
      "remarkable": 1359,
      "cul": 1360,
      "ith": 1361,
      "must": 1362,
      "spo": 1363,
      "ident": 1364,
      "path": 1365,
      "imagination": 1366,
      "talented": 1367,
      "opera": 1368,
      "especially": 1369,
      "cu": 1370,
      "nat": 1371,
      "wel": 1372,
      "defin": 1373,
      "concept": 1374,
      "bland": 1375,
      "writing": 1376,
      "wonderful": 1377,
      "middle": 1378,
      "gorge": 1379,
      "ped": 1380,
      "sand": 1381,
      "witt": 1382,
      "ambit": 1383,
      "book": 1384,
      "boring": 1385,
      "let": 1386,
      "quest": 1387,
      "everything": 1388,
      "version": 1389,
      "memorable": 1390,
      "ben": 1391,
      "camer": 1392,
      "atest": 1393,
      "leave": 1394,
      "exercise": 1395,
      "grow": 1396,
      "nch": 1397,
      "instead": 1398,
      "itive": 1399,
      "appro": 1400,
      "delic": 1401,
      "simple": 1402,
      "20": 1403,
      "black": 1404,
      "hu": 1405,
      "insp": 1406,
      "flu": 1407,
      "disappoint": 1408,
      "graphy": 1409,
      "cla": 1410,
      "gg": 1411,
      "py": 1412,
      "reve": 1413,
      "already": 1414,
      "sett": 1415,
      "dec": 1416,
      "detail": 1417,
      "camera": 1418,
      "ses": 1419,
      "oud": 1420,
      "else": 1421,
      "ung": 1422,
      "matter": 1423,
      "otic": 1424,
      "intriguing": 1425,
      "side": 1426,
      "tens": 1427,
      "rock": 1428,
      "desp": 1429,
      "except": 1430,
      "selves": 1431,
      "ered": 1432,
      "ende": 1433,
      "vir": 1434,
      "fest": 1435,
      "ended": 1436,
      "sym": 1437,
      "color": 1438,
      "woman": 1439,
      "frustr": 1440,
      "filmmaker": 1441,
      "ordin": 1442,
      "ade": 1443,
      "recent": 1444,
      "dev": 1445,
      "poet": 1446,
      "uses": 1447,
      "ize": 1448,
      "turns": 1449,
      "histor": 1450,
      "adventure": 1451,
      "convincing": 1452,
      "dri": 1453,
      "slight": 1454,
      "rest": 1455,
      "quiet": 1456,
      "taking": 1457,
      "myster": 1458,
      "audiences": 1459,
      "ocative": 1460,
      "slo": 1461,
      "storytelling": 1462,
      "cheap": 1463,
      "personal": 1464,
      "dim": 1465,
      "fran": 1466,
      "lic": 1467,
      "spi": 1468,
      "funni": 1469,
      "french": 1470,
      "dition": 1471,
      "ier": 1472,
      "stories": 1473,
      "extre": 1474,
      "iction": 1475,
      "ball": 1476,
      "ib": 1477,
      "pay": 1478,
      "ising": 1479,
      "death": 1480,
      "lessly": 1481,
      "obvious": 1482,
      "cat": 1483,
      "cold": 1484,
      "fact": 1485,
      "stop": 1486,
      "exe": 1487,
      "gentle": 1488,
      "imaginative": 1489,
      "despite": 1490,
      "fan": 1491,
      "met": 1492,
      "tell": 1493,
      "stup": 1494,
      "credi": 1495,
      "visually": 1496,
      "images": 1497,
      "terrific": 1498,
      "above": 1499,
      "stupid": 1500,
      "ring": 1501,
      "proves": 1502,
      "itting": 1503,
      "execut": 1504,
      "mas": 1505,
      "yond": 1506,
      "beyond": 1507,
      "seat": 1508,
      "develop": 1509,
      "pping": 1510,
      "thoughtful": 1511,
      "os": 1512,
      "slap": 1513,
      "amoun": 1514,
      "necess": 1515,
      "straight": 1516,
      "usual": 1517,
      "completely": 1518,
      "jour": 1519,
      "ony": 1520,
      "become": 1521,
      "road": 1522,
      "shot": 1523,
      "pres": 1524,
      "ellent": 1525,
      "ress": 1526,
      "chill": 1527,
      "rage": 1528,
      "rible": 1529,
      "posed": 1530,
      "beauty": 1531,
      "bare": 1532,
      "pri": 1533,
      "spl": 1534,
      "looks": 1535,
      "attempt": 1536,
      "friend": 1537,
      "dog": 1538,
      "having": 1539,
      "traged": 1540,
      "directed": 1541,
      "jokes": 1542,
      "emotionally": 1543,
      "craft": 1544,
      "fight": 1545,
      "ont": 1546,
      "exist": 1547,
      "express": 1548,
      "weird": 1549,
      "sequences": 1550,
      "fails": 1551,
      "impossible": 1552,
      "ationship": 1553,
      "inside": 1554,
      "plays": 1555,
      "relationship": 1556,
      "mr": 1557,
      "male": 1558,
      "none": 1559,
      "sust": 1560,
      "cool": 1561,
      "worthy": 1562,
      "mira": 1563,
      "deni": 1564,
      "skill": 1565,
      "gorgeous": 1566,
      "ient": 1567,
      "ishing": 1568,
      "subst": 1569,
      "member": 1570,
      "ugly": 1571,
      "important": 1572,
      "bud": 1573,
      "body": 1574,
      "fat": 1575,
      "mic": 1576,
      "stun": 1577,
      "iously": 1578,
      "cliches": 1579,
      "shock": 1580,
      "himself": 1581,
      "fast": 1582,
      "leg": 1583,
      "left": 1584,
      "emp": 1585,
      "chool": 1586,
      "brea": 1587,
      "arent": 1588,
      "second": 1589,
      "step": 1590,
      "maj": 1591,
      "comfort": 1592,
      "nest": 1593,
      "fashioned": 1594,
      "different": 1595,
      "tar": 1596,
      "wan": 1597,
      "room": 1598,
      "got": 1599,
      "bring": 1600,
      "pleasant": 1601,
      "moral": 1602,
      "easily": 1603,
      "expected": 1604,
      "falls": 1605,
      "melodrama": 1606,
      "school": 1607,
      "inst": 1608,
      "sto": 1609,
      "soap": 1610,
      "ags": 1611,
      "viewers": 1612,
      "change": 1613,
      "four": 1614,
      "ode": 1615,
      "sever": 1616,
      "forced": 1617,
      "pretent": 1618,
      "ender": 1619,
      "boy": 1620,
      "crime": 1621,
      "believe": 1622,
      "spectac": 1623,
      "brilliant": 1624,
      "oscar": 1625,
      "inno": 1626,
      "reg": 1627,
      "thetic": 1628,
      "debut": 1629,
      "earnest": 1630,
      "grace": 1631,
      "sentimental": 1632,
      "thorough": 1633,
      "believable": 1634,
      "fut": 1635,
      "found": 1636,
      "rit": 1637,
      "thers": 1638,
      "dem": 1639,
      "comb": 1640,
      "fairly": 1641,
      "appealing": 1642,
      "lan": 1643,
      "ances": 1644,
      "reli": 1645,
      "depress": 1646,
      "absur": 1647,
      "potent": 1648,
      "creative": 1649,
      "faith": 1650,
      "berg": 1651,
      "excellent": 1652,
      "contrived": 1653,
      "oid": 1654,
      "tired": 1655,
      "eyes": 1656,
      "home": 1657,
      "decent": 1658,
      "sha": 1659,
      "present": 1660,
      "otherwise": 1661,
      "lacks": 1662,
      "viewer": 1663,
      "each": 1664,
      "gro": 1665,
      "jack": 1666,
      "kill": 1667,
      "sort": 1668,
      "recomm": 1669,
      "ase": 1670,
      "ention": 1671,
      "event": 1672,
      "comedies": 1673,
      "shows": 1674,
      "extreme": 1675,
      "fig": 1676,
      "uous": 1677,
      "ctive": 1678,
      "working": 1679,
      "hack": 1680,
      "epis": 1681,
      "warmth": 1682,
      "pretentious": 1683,
      "dry": 1684,
      "mble": 1685,
      "ames": 1686,
      "shar": 1687,
      "key": 1688,
      "goof": 1689,
      "quick": 1690,
      "surprising": 1691,
      "commun": 1692,
      "deliver": 1693,
      "certainly": 1694,
      "particularly": 1695,
      "bing": 1696,
      "bla": 1697,
      "sle": 1698,
      "ched": 1699,
      "enty": 1700,
      "oney": 1701,
      "social": 1702,
      "pack": 1703,
      "wrong": 1704,
      "rossing": 1705,
      "violence": 1706,
      "welcome": 1707,
      "ama": 1708,
      "reward": 1709,
      "lost": 1710,
      "vivid": 1711,
      "intim": 1712,
      "guil": 1713,
      "crit": 1714,
      "crafted": 1715,
      "var": 1716,
      "incl": 1717,
      "invol": 1718,
      "cele": 1719,
      "rist": 1720,
      "actress": 1721,
      "taste": 1722,
      "ished": 1723,
      "coher": 1724,
      "ival": 1725,
      "themselves": 1726,
      "unique": 1727,
      "either": 1728,
      "ges": 1729,
      "ened": 1730,
      "role": 1731,
      "hael": 1732,
      "hope": 1733,
      "moment": 1734,
      "message": 1735,
      "animation": 1736,
      "delightful": 1737,
      "purpo": 1738,
      "thoroughly": 1739,
      "loud": 1740,
      "mal": 1741,
      "nu": 1742,
      "heavy": 1743,
      "final": 1744,
      "hn": 1745,
      "move": 1746,
      "mood": 1747,
      "logy": 1748,
      "lives": 1749,
      "adults": 1750,
      "ashing": 1751,
      "impressive": 1752,
      "historical": 1753,
      "barely": 1754,
      "dan": 1755,
      "fer": 1756,
      "lim": 1757,
      "pan": 1758,
      "weight": 1759,
      "pathetic": 1760,
      "seeing": 1761,
      "winning": 1762,
      "meaning": 1763,
      "creepy": 1764,
      "air": 1765,
      "dou": 1766,
      "gags": 1767,
      "lab": 1768,
      "pun": 1769,
      "squ": 1770,
      "tw": 1771,
      "along": 1772,
      "ement": 1773,
      "quality": 1774,
      "occas": 1775,
      "shoot": 1776,
      "eleg": 1777,
      "ambitious": 1778,
      "celebr": 1779,
      "mes": 1780,
      "ali": 1781,
      "aling": 1782,
      "impro": 1783,
      "loss": 1784,
      "convent": 1785,
      "sco": 1786,
      "worse": 1787,
      "ensive": 1788,
      "colle": 1789,
      "clichés": 1790,
      "natural": 1791,
      "necessary": 1792,
      "game": 1793,
      "given": 1794,
      "pul": 1795,
      "ilo": 1796,
      "force": 1797,
      "consc": 1798,
      "favor": 1799,
      "john": 1800,
      "clear": 1801,
      "running": 1802,
      "ordinary": 1803,
      "michael": 1804,
      "90": 1805,
      "kno": 1806,
      "next": 1807,
      "respect": 1808,
      "cover": 1809,
      "engrossing": 1810,
      "brain": 1811,
      "help": 1812,
      "depth": 1813,
      "inventive": 1814,
      "budget": 1815,
      "hit": 1816,
      "unf": 1817,
      "unsett": 1818,
      "ular": 1819,
      "rol": 1820,
      "whe": 1821,
      "ams": 1822,
      "expl": 1823,
      "resist": 1824,
      "fantasy": 1825,
      "sharp": 1826,
      "bi": 1827,
      "gang": 1828,
      "nic": 1829,
      "suck": 1830,
      "add": 1831,
      "ump": 1832,
      "score": 1833,
      "usion": 1834,
      "aged": 1835,
      "hip": 1836,
      "paren": 1837,
      "sour": 1838,
      "arn": 1839,
      "shap": 1840,
      "manip": 1841,
      "plain": 1842,
      "watchable": 1843,
      "psychological": 1844,
      "inspired": 1845,
      "manipul": 1846,
      "bul": 1847,
      "rous": 1848,
      "alter": 1849,
      "marvel": 1850,
      "ground": 1851,
      "imagine": 1852,
      "attention": 1853,
      "standard": 1854,
      "follow": 1855,
      "tragedy": 1856,
      "aff": 1857,
      "fic": 1858,
      "repe": 1859,
      "dio": 1860,
      "flash": 1861,
      "awful": 1862,
      "scene": 1863,
      "succeed": 1864,
      "perfectly": 1865,
      "entirely": 1866,
      "flow": 1867,
      "ham": 1868,
      "ography": 1869,
      "shallow": 1870,
      "conce": 1871,
      "ivity": 1872,
      "breath": 1873,
      "eye": 1874,
      "waste": 1875,
      "tension": 1876,
      "sustain": 1877,
      "major": 1878,
      "ju": 1879,
      "pic": 1880,
      "pure": 1881,
      "sn": 1882,
      "inf": 1883,
      "rema": 1884,
      "remember": 1885,
      "enth": 1886,
      "atter": 1887,
      "atory": 1888,
      "assu": 1889,
      "acted": 1890,
      "prov": 1891,
      "rent": 1892,
      "stylish": 1893,
      "truth": 1894,
      "consist": 1895,
      "blood": 1896,
      "approach": 1897,
      "remains": 1898,
      "crow": 1899,
      "numb": 1900,
      "tation": 1901,
      "zing": 1902,
      "stick": 1903,
      "ork": 1904,
      "tom": 1905,
      "ches": 1906,
      "unfunny": 1907,
      "undeni": 1908,
      "accomp": 1909,
      "job": 1910,
      "period": 1911,
      "pictures": 1912,
      "journey": 1913,
      "unsettling": 1914,
      "0s": 1915,
      "lad": 1916,
      "sw": 1917,
      "vul": 1918,
      "ines": 1919,
      "revel": 1920,
      "ised": 1921,
      "usi": 1922,
      "painful": 1923,
      "future": 1924,
      "aim": 1925,
      "ially": 1926,
      "pull": 1927,
      "indi": 1928,
      "edge": 1929,
      "adap": 1930,
      "intense": 1931,
      "core": 1932,
      "water": 1933,
      "bert": 1934,
      "contem": 1935,
      "recommend": 1936,
      "band": 1937,
      "rhy": 1938,
      "ined": 1939,
      "stay": 1940,
      "told": 1941,
      "rap": 1942,
      "neither": 1943,
      "scary": 1944,
      "quis": 1945,
      "astic": 1946,
      "acy": 1947,
      "desper": 1948,
      "observ": 1949,
      "cris": 1950,
      "examination": 1951,
      "mystery": 1952,
      "absurd": 1953,
      "parents": 1954,
      "rhyth": 1955,
      "ouse": 1956,
      "omb": 1957,
      "concer": 1958,
      "manner": 1959,
      "charis": 1960,
      "test": 1961,
      "brit": 1962,
      "satire": 1963,
      "pieces": 1964,
      "slopp": 1965,
      "bed": 1966,
      "gone": 1967,
      "num": 1968,
      "sen": 1969,
      "icult": 1970,
      "pair": 1971,
      "reality": 1972,
      "knows": 1973,
      "leaves": 1974,
      "against": 1975,
      "difficult": 1976,
      "case": 1977,
      "definite": 1978,
      "wind": 1979,
      "issu": 1980,
      "els": 1981,
      "devo": 1982,
      "lock": 1983,
      "sup": 1984,
      "doing": 1985,
      "prec": 1986,
      "provo": 1987,
      "indul": 1988,
      "disney": 1989,
      "hood": 1990,
      "lacking": 1991,
      "miss": 1992,
      "career": 1993,
      "elements": 1994,
      "liter": 1995,
      "enthusi": 1996,
      "fare": 1997,
      "ris": 1998,
      "sick": 1999,
      "yp": 2000,
      "reach": 2001,
      "ices": 2002,
      "ley": 2003,
      "forge": 2004,
      "poign": 2005,
      "spark": 2006,
      "epic": 2007,
      "tries": 2008,
      "highly": 2009,
      "medio": 2010,
      "tedious": 2011,
      "close": 2012,
      "amount": 2013,
      "crowd": 2014,
      "forgett": 2015,
      "ging": 2016,
      "nam": 2017,
      "rat": 2018,
      "ron": 2019,
      "ues": 2020,
      "wil": 2021,
      "asp": 2022,
      "rip": 2023,
      "lay": 2024,
      "quent": 2025,
      "rush": 2026,
      "mere": 2027,
      "poorly": 2028,
      "inspiring": 2029,
      "ago": 2030,
      "cri": 2031,
      "cere": 2032,
      "gif": 2033,
      "anced": 2034,
      "entic": 2035,
      "roll": 2036,
      "adm": 2037,
      "post": 2038,
      "intent": 2039,
      "flicks": 2040,
      "hearted": 2041,
      "iculous": 2042,
      "considerable": 2043,
      "situations": 2044,
      "purpose": 2045,
      "provocative": 2046,
      "rate": 2047,
      "smo": 2048,
      "ya": 2049,
      "arity": 2050,
      "emer": 2051,
      "tage": 2052,
      "spy": 2053,
      "cost": 2054,
      "create": 2055,
      "days": 2056,
      "trans": 2057,
      "political": 2058,
      "affection": 2059,
      "pathy": 2060,
      "leng": 2061,
      "york": 2062,
      "imm": 2063,
      "rive": 2064,
      "concl": 2065,
      "uster": 2066,
      "tele": 2067,
      "offer": 2068,
      "bling": 2069,
      "break": 2070,
      "neyed": 2071,
      "spiritual": 2072,
      "cinematography": 2073,
      "production": 2074,
      "masterpiece": 2075,
      "sensitive": 2076,
      "successful": 2077,
      "utely": 2078,
      "endearing": 2079,
      "hackneyed": 2080,
      "length": 2081,
      "bus": 2082,
      "pra": 2083,
      "sal": 2084,
      "remind": 2085,
      "mach": 2086,
      "getting": 2087,
      "fear": 2088,
      "exact": 2089,
      "termin": 2090,
      "offensive": 2091,
      "greatest": 2092,
      "finally": 2093,
      "front": 2094,
      "animated": 2095,
      "virt": 2096,
      "colorful": 2097,
      "accomplish": 2098,
      "forgettable": 2099,
      "vag": 2100,
      "orts": 2101,
      "chop": 2102,
      "demon": 2103,
      "ution": 2104,
      "ried": 2105,
      "ateur": 2106,
      "auth": 2107,
      "open": 2108,
      "trou": 2109,
      "cultural": 2110,
      "superfic": 2111,
      "definitely": 2112,
      "ai": 2113,
      "wers": 2114,
      "absol": 2115,
      "weak": 2116,
      "aston": 2117,
      "pace": 2118,
      "complic": 2119,
      "delivers": 2120,
      "usually": 2121,
      "utterly": 2122,
      "witty": 2123,
      "god": 2124,
      "hell": 2125,
      "ii": 2126,
      "mill": 2127,
      "sav": 2128,
      "andering": 2129,
      "mostly": 2130,
      "bled": 2131,
      "achieve": 2132,
      "themes": 2133,
      "surprise": 2134,
      "thinking": 2135,
      "flaws": 2136,
      "relationships": 2137,
      "adaptation": 2138,
      "fac": 2139,
      "money": 2140,
      "vil": 2141,
      "zen": 2142,
      "iss": 2143,
      "ential": 2144,
      "lip": 2145,
      "conne": 2146,
      "urban": 2147,
      "throughout": 2148,
      "trip": 2149,
      "emotions": 2150,
      "cute": 2151,
      "keeps": 2152,
      "frustrating": 2153,
      "during": 2154,
      "eth": 2155,
      "hot": 2156,
      "pal": 2157,
      "inc": 2158,
      "reco": 2159,
      "arch": 2160,
      "toward": 2161,
      "secre": 2162,
      "mad": 2163,
      "magic": 2164,
      "amateur": 2165,
      "paint": 2166,
      "monster": 2167,
      "sophistic": 2168,
      "stream": 2169,
      "dimens": 2170,
      "spiel": 2171,
      "several": 2172,
      "gun": 2173,
      "house": 2174,
      "sac": 2175,
      "wish": 2176,
      "anno": 2177,
      "female": 2178,
      "construct": 2179,
      "clum": 2180,
      "cop": 2181,
      "attle": 2182,
      "reson": 2183,
      "strugg": 2184,
      "listic": 2185,
      "burn": 2186,
      "bol": 2187,
      "sid": 2188,
      "deft": 2189,
      "words": 2190,
      "stere": 2191,
      "motion": 2192,
      "pointless": 2193,
      "apparent": 2194,
      "mindless": 2195,
      "glor": 2196,
      "product": 2197,
      "promise": 2198,
      "begin": 2199,
      "demand": 2200,
      "spielberg": 2201,
      "blow": 2202,
      "dish": 2203,
      "name": 2204,
      "deriv": 2205,
      "bot": 2206,
      "credit": 2207,
      "render": 2208,
      "single": 2209,
      "sexual": 2210,
      "ridiculous": 2211,
      "called": 2212,
      "frame": 2213,
      "presents": 2214,
      "episode": 2215,
      "manipulative": 2216,
      "superficial": 2217,
      "hom": 2218,
      "kable": 2219,
      "kward": 2220,
      "rout": 2221,
      "song": 2222,
      "sket": 2223,
      "tro": 2224,
      "incredi": 2225,
      "sets": 2226,
      "unexpected": 2227,
      "novel": 2228,
      "ries": 2229,
      "share": 2230,
      "emb": 2231,
      "opport": 2232,
      "realism": 2233,
      "minor": 2234,
      "playing": 2235,
      "awkward": 2236,
      "pped": 2237,
      "avoid": 2238,
      "couple": 2239,
      "twists": 2240,
      "captures": 2241,
      "devast": 2242,
      "execution": 2243,
      "whether": 2244,
      "issues": 2245,
      "opportun": 2246,
      "bers": 2247,
      "bright": 2248,
      "ga": 2249,
      "iest": 2250,
      "mart": 2251,
      "mist": 2252,
      "steven": 2253,
      "compe": 2254,
      "pert": 2255,
      "umph": 2256,
      "process": 2257,
      "ensemble": 2258,
      "free": 2259,
      "getic": 2260,
      "tribut": 2261,
      "triumph": 2262,
      "centr": 2263,
      "carto": 2264,
      "deserves": 2265,
      "contempor": 2266,
      "stereot": 2267,
      "fu": 2268,
      "wed": 2269,
      "indie": 2270,
      "arily": 2271,
      "christ": 2272,
      "somewhat": 2273,
      "across": 2274,
      "tear": 2275,
      "philo": 2276,
      "served": 2277,
      "memory": 2278,
      "corn": 2279,
      "girls": 2280,
      "problem": 2281,
      "pacing": 2282,
      "langu": 2283,
      "depressing": 2284,
      "intimate": 2285,
      "philosoph": 2286,
      "ace": 2287,
      "aks": 2288,
      "bow": 2289,
      "eld": 2290,
      "absor": 2291,
      "embra": 2292,
      "word": 2293,
      "tains": 2294,
      "ups": 2295,
      "guess": 2296,
      "paper": 2297,
      "insult": 2298,
      "lovely": 2299,
      "anger": 2300,
      "belly": 2301,
      "arring": 2302,
      "surprises": 2303,
      "exciting": 2304,
      "intrigue": 2305,
      "huge": 2306,
      "conventional": 2307,
      "supposed": 2308,
      "bs": 2309,
      "camp": 2310,
      "date": 2311,
      "fiction": 2312,
      "san": 2313,
      "chy": 2314,
      "unk": 2315,
      "uneven": 2316,
      "oles": 2317,
      "aster": 2318,
      "rug": 2319,
      "tragic": 2320,
      "justice": 2321,
      "gress": 2322,
      "brut": 2323,
      "starts": 2324,
      "striking": 2325,
      "delicate": 2326,
      "goofy": 2327,
      "conscious": 2328,
      "authentic": 2329,
      "fal": 2330,
      "ied": 2331,
      "ude": 2332,
      "throw": 2333,
      "iny": 2334,
      "deal": 2335,
      "verse": 2336,
      "supp": 2337,
      "whim": 2338,
      "evil": 2339,
      "pho": 2340,
      "green": 2341,
      "brings": 2342,
      "smile": 2343,
      "chees": 2344,
      "sexy": 2345,
      "count": 2346,
      "chilling": 2347,
      "mediocre": 2348,
      "sophisticated": 2349,
      "stereotyp": 2350,
      "fish": 2351,
      "tire": 2352,
      "wren": 2353,
      "mother": 2354,
      "enter": 2355,
      "someone": 2356,
      "cred": 2357,
      "overcome": 2358,
      "compass": 2359,
      "design": 2360,
      "heartfelt": 2361,
      "humanity": 2362,
      "medi": 2363,
      "dazz": 2364,
      "shots": 2365,
      "transc": 2366,
      "slightly": 2367,
      "coherent": 2368,
      "occasionally": 2369,
      "repetit": 2370,
      "number": 2371,
      "tribute": 2372,
      "contemporary": 2373,
      "tiresome": 2374,
      "aver": 2375,
      "gross": 2376,
      "ibly": 2377,
      "mou": 2378,
      "nal": 2379,
      "rical": 2380,
      "remake": 2381,
      "stale": 2382,
      "orm": 2383,
      "today": 2384,
      "living": 2385,
      "fill": 2386,
      "conv": 2387,
      "perform": 2388,
      "worthwhile": 2389,
      "plenty": 2390,
      "broad": 2391,
      "dama": 2392,
      "generic": 2393,
      "allows": 2394,
      "twisted": 2395,
      "equally": 2396,
      "nicely": 2397,
      "strange": 2398,
      "sandler": 2399,
      "**": 2400,
      "fright": 2401,
      "hind": 2402,
      "nel": 2403,
      "van": 2404,
      "eness": 2405,
      "aps": 2406,
      "events": 2407,
      "tten": 2408,
      "realistic": 2409,
      "playful": 2410,
      "excit": 2411,
      "sincere": 2412,
      "failure": 2413,
      "painfully": 2414,
      "lines": 2415,
      "based": 2416,
      "funnier": 2417,
      "target": 2418,
      "altern": 2419,
      "city": 2420,
      "ka": 2421,
      "mild": 2422,
      "thro": 2423,
      "aspect": 2424,
      "chem": 2425,
      "raw": 2426,
      "load": 2427,
      "lies": 2428,
      "commer": 2429,
      "shop": 2430,
      "terrible": 2431,
      "quently": 2432,
      "intro": 2433,
      "ists": 2434,
      "storyline": 2435,
      "party": 2436,
      "spirited": 2437,
      "needs": 2438,
      "courage": 2439,
      "holds": 2440,
      "200": 2441,
      "mesmer": 2442,
      "cir": 2443,
      "gon": 2444,
      "uck": 2445,
      "vant": 2446,
      "lets": 2447,
      "ils": 2448,
      "chang": 2449,
      "likable": 2450,
      "filled": 2451,
      "apart": 2452,
      "uss": 2453,
      "thanks": 2454,
      "inept": 2455,
      "warming": 2456,
      "happy": 2457,
      "country": 2458,
      "remarkably": 2459,
      "poetry": 2460,
      "quisite": 2461,
      "sensu": 2462,
      "amateurish": 2463,
      "egr": 2464,
      "gut": 2465,
      "jer": 2466,
      "rum": 2467,
      "yal": 2468,
      "resp": 2469,
      "asure": 2470,
      "rable": 2471,
      "lif": 2472,
      "appre": 2473,
      "integr": 2474,
      "clarity": 2475,
      "accept": 2476,
      "izes": 2477,
      "casting": 2478,
      "relent": 2479,
      "ultimate": 2480,
      "contin": 2481,
      "univers": 2482,
      "insightful": 2483,
      "large": 2484,
      "sounds": 2485,
      "breathtaking": 2486,
      "devoid": 2487,
      "appreci": 2488,
      "bt": 2489,
      "bound": 2490,
      "cour": 2491,
      "pit": 2492,
      "round": 2493,
      "stage": 2494,
      "ilities": 2495,
      "unt": 2496,
      "forget": 2497,
      "among": 2498,
      "ousy": 2499,
      "tack": 2500,
      "bored": 2501,
      "draw": 2502,
      "rarely": 2503,
      "bri": 2504,
      "lame": 2505,
      "text": 2506,
      "inv": 2507,
      "inct": 2508,
      "itable": 2509,
      "itative": 2510,
      "andon": 2511,
      "sem": 2512,
      "determin": 2513,
      "sham": 2514,
      "olly": 2515,
      "prim": 2516,
      "company": 2517,
      "achiev": 2518,
      "clearly": 2519,
      "obs": 2520,
      "arrass": 2521,
      "viewing": 2522,
      "energetic": 2523,
      "wants": 2524,
      "curi": 2525,
      "affir": 2526,
      "exactly": 2527,
      "embarrass": 2528,
      "cartoon": 2529,
      "battle": 2530,
      "vic": 2531,
      "ency": 2532,
      "atic": 2533,
      "taken": 2534,
      "sports": 2535,
      "runs": 2536,
      "turned": 2537,
      "genuinely": 2538,
      "strangely": 2539,
      "wildly": 2540,
      "situation": 2541,
      "refreshing": 2542,
      "funniest": 2543,
      "faithful": 2544,
      "figure": 2545,
      "guilty": 2546,
      "fab": 2547,
      "mc": 2548,
      "nical": 2549,
      "ank": 2550,
      "atmo": 2551,
      "stom": 2552,
      "rob": 2553,
      "shame": 2554,
      "soci": 2555,
      "allen": 2556,
      "access": 2557,
      "guys": 2558,
      "mention": 2559,
      "orting": 2560,
      "impact": 2561,
      "appy": 2562,
      "typ": 2563,
      "award": 2564,
      "empty": 2565,
      "extraordinary": 2566,
      "festival": 2567,
      "metap": 2568,
      "sloppy": 2569,
      "atmosp": 2570,
      "flo": 2571,
      "national": 2572,
      "sne": 2573,
      "sitting": 2574,
      "yarn": 2575,
      "enn": 2576,
      "ison": 2577,
      "asm": 2578,
      "iling": 2579,
      "ades": 2580,
      "ared": 2581,
      "istry": 2582,
      "guy": 2583,
      "yourself": 2584,
      "badly": 2585,
      "minded": 2586,
      "missed": 2587,
      "meditation": 2588,
      "stars": 2589,
      "cruel": 2590,
      "captiv": 2591,
      "wasted": 2592,
      "photo": 2593,
      "chemistry": 2594,
      "biz": 2595,
      "gay": 2596,
      "gment": 2597,
      "ker": 2598,
      "willi": 2599,
      "alone": 2600,
      "aries": 2601,
      "exp": 2602,
      "alling": 2603,
      "joke": 2604,
      "marks": 2605,
      "ocused": 2606,
      "originality": 2607,
      "wonderfully": 2608,
      "effective": 2609,
      "politics": 2610,
      "begins": 2611,
      "dreams": 2612,
      "gripping": 2613,
      "position": 2614,
      "rewarding": 2615,
      "explor": 2616,
      "annoying": 2617,
      "commercial": 2618,
      "ax": 2619,
      "ja": 2620,
      "ator": 2621,
      "onic": 2622,
      "decept": 2623,
      "sug": 2624,
      "admira": 2625,
      "frequently": 2626,
      "america": 2627,
      "graphic": 2628,
      "value": 2629,
      "counter": 2630,
      "signific": 2631,
      "problems": 2632,
      "questions": 2633,
      "indulgent": 2634,
      "trouble": 2635,
      "universal": 2636,
      "cross": 2637,
      "hall": 2638,
      "oy": 2639,
      "tor": 2640,
      "ancy": 2641,
      "stren": 2642,
      "chance": 2643,
      "behind": 2644,
      "sca": 2645,
      "soon": 2646,
      "bog": 2647,
      "created": 2648,
      "earth": 2649,
      "interested": 2650,
      "glimp": 2651,
      "sheer": 2652,
      "voice": 2653,
      "science": 2654,
      "frank": 2655,
      "twice": 2656,
      "alien": 2657,
      "merely": 2658,
      "conclusion": 2659,
      "derivative": 2660,
      "devastating": 2661,
      "excitement": 2662,
      "latest": 2663,
      "tender": 2664,
      "icking": 2665,
      "elo": 2666,
      "unnecessary": 2667,
      "lift": 2668,
      "liked": 2669,
      "uter": 2670,
      "white": 2671,
      "ants": 2672,
      "acc": 2673,
      "creates": 2674,
      "mud": 2675,
      "computer": 2676,
      "bles": 2677,
      "grat": 2678,
      "tread": 2679,
      "capable": 2680,
      "puts": 2681,
      "crush": 2682,
      "flawed": 2683,
      "iveness": 2684,
      "detailed": 2685,
      "slapstick": 2686,
      "extremely": 2687,
      "succeeds": 2688,
      "provoking": 2689,
      "absolutely": 2690,
      "brid": 2691,
      "hun": 2692,
      "kers": 2693,
      "late": 2694,
      "nast": 2695,
      "sappy": 2696,
      "era": 2697,
      "recor": 2698,
      "lots": 2699,
      "robert": 2700,
      "notice": 2701,
      "clu": 2702,
      "tradit": 2703,
      "mug": 2704,
      "disgu": 2705,
      "grant": 2706,
      "hardly": 2707,
      "handed": 2708,
      "popcorn": 2709,
      "push": 2710,
      "suffers": 2711,
      "natured": 2712,
      "attraction": 2713,
      "paced": 2714,
      "friendship": 2715,
      "involving": 2716,
      "british": 2717,
      "villa": 2718,
      "fur": 2719,
      "hes": 2720,
      "jap": 2721,
      "pin": 2722,
      "pile": 2723,
      "rand": 2724,
      "ingu": 2725,
      "lest": 2726,
      "imax": 2727,
      "vibr": 2728,
      "goers": 2729,
      "tagon": 2730,
      "previous": 2731,
      "protagon": 2732,
      "places": 2733,
      "meandering": 2734,
      "comprom": 2735,
      "heartwarming": 2736,
      "horrible": 2737,
      "distingu": 2738,
      "breaking": 2739,
      "spectacle": 2740,
      "doubt": 2741,
      "college": 2742,
      "demonstr": 2743,
      "typical": 2744,
      "nasty": 2745,
      "cand": 2746,
      "drug": 2747,
      "nation": 2748,
      "alive": 2749,
      "escap": 2750,
      "iche": 2751,
      "dig": 2752,
      "mature": 2753,
      "disaster": 2754,
      "grade": 2755,
      "motiv": 2756,
      "downright": 2757,
      "attemp": 2758,
      "standing": 2759,
      "wond": 2760,
      "dreary": 2761,
      "possibly": 2762,
      "zzy": 2763,
      "seriously": 2764,
      "service": 2765,
      "treatment": 2766,
      "wanna": 2767,
      "dimensional": 2768,
      "incredibly": 2769,
      "opportunity": 2770,
      "credits": 2771,
      "performers": 2772,
      "mesmerizing": 2773,
      "stomach": 2774,
      "attempts": 2775,
      "dv": 2776,
      "fing": 2777,
      "gust": 2778,
      "hate": 2779,
      "jud": 2780,
      "park": 2781,
      "si": 2782,
      "wick": 2783,
      "ero": 2784,
      "onder": 2785,
      "ander": 2786,
      "beha": 2787,
      "arts": 2788,
      "preh": 2789,
      "creat": 2790,
      "overall": 2791,
      "suspenseful": 2792,
      "refreshingly": 2793,
      "identity": 2794,
      "innov": 2795,
      "card": 2796,
      "gid": 2797,
      "xic": 2798,
      "recy": 2799,
      "chant": 2800,
      "vides": 2801,
      "filling": 2802,
      "artific": 2803,
      "cks": 2804,
      "gotten": 2805,
      "provides": 2806,
      "haun": 2807,
      "ify": 2808,
      "teach": 2809,
      "scream": 2810,
      "realized": 2811,
      "ideal": 2812,
      "gradu": 2813,
      "grou": 2814,
      "directors": 2815,
      "turning": 2816,
      "pleasing": 2817,
      "check": 2818,
      "sitcom": 2819,
      "brown": 2820,
      "americans": 2821,
      "trick": 2822,
      "trash": 2823,
      "skin": 2824,
      "delivery": 2825,
      "balance": 2826,
      "publ": 2827,
      "murder": 2828,
      "oddly": 2829,
      "stunning": 2830,
      "stock": 2831,
      "elegant": 2832,
      "assured": 2833,
      "riveting": 2834,
      "absorbing": 2835,
      "suggest": 2836,
      "artificial": 2837,
      "fle": 2838,
      "jum": 2839,
      "oo": 2840,
      "pitch": 2841,
      "uc": 2842,
      "aly": 2843,
      "chall": 2844,
      "chise": 2845,
      "vey": 2846,
      "decess": 2847,
      "lie": 2848,
      "dies": 2849,
      "exquisite": 2850,
      "predecess": 2851,
      "ister": 2852,
      "phy": 2853,
      "survi": 2854,
      "willing": 2855,
      "spec": 2856,
      "laughter": 2857,
      "ledge": 2858,
      "build": 2859,
      "dress": 2860,
      "finds": 2861,
      "visuals": 2862,
      "superb": 2863,
      "waiting": 2864,
      "profess": 2865,
      "reveals": 2866,
      "franchise": 2867,
      "ibilities": 2868,
      "fatal": 2869,
      "comfortable": 2870,
      "sleep": 2871,
      "includ": 2872,
      "business": 2873,
      "bottom": 2874,
      "dazzling": 2875,
      "average": 2876,
      "conviction": 2877,
      "until": 2878,
      "japan": 2879,
      "challeng": 2880,
      "bag": 2881,
      "bold": 2882,
      "bond": 2883,
      "bio": 2884,
      "dled": 2885,
      "eu": 2886,
      "pick": 2887,
      "tends": 2888,
      "vate": 2889,
      "esque": 2890,
      "town": 2891,
      "editing": 2892,
      "modest": 2893,
      "unimaginative": 2894,
      "shad": 2895,
      "lazy": 2896,
      "irrit": 2897,
      "indust": 2898,
      "lessness": 2899,
      "match": 2900,
      "please": 2901,
      "intellect": 2902,
      "thrills": 2903,
      "cliched": 2904,
      "david": 2905,
      "general": 2906,
      "profound": 2907,
      "revealing": 2908,
      "poetic": 2909,
      "regard": 2910,
      "amazing": 2911,
      "crisp": 2912,
      "secret": 2913,
      "sides": 2914,
      "false": 2915,
      "2002": 2916,
      "eve": 2917,
      "five": 2918,
      "tough": 2919,
      "tort": 2920,
      "although": 2921,
      "season": 2922,
      "suspect": 2923,
      "nox": 2924,
      "ament": 2925,
      "content": 2926,
      "preach": 2927,
      "matically": 2928,
      "ires": 2929,
      "descri": 2930,
      "obnox": 2931,
      "maybe": 2932,
      "subjects": 2933,
      "leads": 2934,
      "depend": 2935,
      "damned": 2936,
      "sympathetic": 2937,
      "grown": 2938,
      "bullock": 2939,
      "vulgar": 2940,
      "complicated": 2941,
      "achievement": 2942,
      "cheesy": 2943,
      "respons": 2944,
      "including": 2945,
      "gan": 2946,
      "lud": 2947,
      "sight": 2948,
      "vy": 2949,
      "zed": 2950,
      "ingen": 2951,
      "anders": 2952,
      "esca": 2953,
      "icrous": 2954,
      "chin": 2955,
      "vior": 2956,
      "whel": 2957,
      "wide": 2958,
      "shy": 2959,
      "feat": 2960,
      "fears": 2961,
      "confl": 2962,
      "bore": 2963,
      "track": 2964,
      "comedic": 2965,
      "ache": 2966,
      "ashed": 2967,
      "studio": 2968,
      "happen": 2969,
      "listless": 2970,
      "sequels": 2971,
      "question": 2972,
      "growing": 2973,
      "substance": 2974,
      "community": 2975,
      "undeniably": 2976,
      "routine": 2977,
      "competent": 2978,
      "admirable": 2979,
      "behavior": 2980,
      "ludicrous": 2981,
      "escape": 2982,
      "cell": 2983,
      "fly": 2984,
      "gth": 2985,
      "lousy": 2986,
      "punch": 2987,
      "ponder": 2988,
      "arc": 2989,
      "cha": 2990,
      "ram": 2991,
      "excess": 2992,
      "neg": 2993,
      "scrat": 2994,
      "ager": 2995,
      "note": 2996,
      "ified": 2997,
      "acity": 2998,
      "means": 2999,
      "disco": 3000,
      "talents": 3001,
      "sequence": 3002,
      "field": 3003,
      "control": 3004,
      "cleverly": 3005,
      "murphy": 3006,
      "attractive": 3007,
      "obsess": 3008,
      "strength": 3009,
      "hem": 3010,
      "tun": 3011,
      "tally": 3012,
      "zone": 3013,
      "ining": 3014,
      "endid": 3015,
      "ises": 3016,
      "arre": 3017,
      "totally": 3018,
      "bear": 3019,
      "wife": 3020,
      "ribly": 3021,
      "proper": 3022,
      "bother": 3023,
      "itted": 3024,
      "insane": 3025,
      "blue": 3026,
      "excuse": 3027,
      "glory": 3028,
      "fied": 3029,
      "witch": 3030,
      "mainstream": 3031,
      "sentimentality": 3032,
      "grief": 3033,
      "formulaic": 3034,
      "splendid": 3035,
      "quickly": 3036,
      "various": 3037,
      "poignant": 3038,
      "television": 3039,
      "recogn": 3040,
      "sacrif": 3041,
      "compassion": 3042,
      "shameless": 3043,
      "bizarre": 3044,
      "wannabe": 3045,
      "som": 3046,
      "wry": 3047,
      "enorm": 3048,
      "stal": 3049,
      "starring": 3050,
      "icle": 3051,
      "vig": 3052,
      "lived": 3053,
      "superi": 3054,
      "dow": 3055,
      "ante": 3056,
      "agger": 3057,
      "proceed": 3058,
      "intric": 3059,
      "intended": 3060,
      "evocative": 3061,
      "cock": 3062,
      "intoxic": 3063,
      "overwhel": 3064,
      "discover": 3065,
      "ensity": 3066,
      "viscer": 3067,
      "holes": 3068,
      "aked": 3069,
      "strict": 3070,
      "buoy": 3071,
      "perspect": 3072,
      "fortun": 3073,
      "relative": 3074,
      "logic": 3075,
      "promising": 3076,
      "mixed": 3077,
      "ibility": 3078,
      "unfold": 3079,
      "central": 3080,
      "philosophical": 3081,
      "repetitive": 3082,
      "damage": 3083,
      "victim": 3084,
      "superior": 3085,
      "came": 3086,
      "eper": 3087,
      "eur": 3088,
      "eath": 3089,
      "fit": 3090,
      "idi": 3091,
      "sar": 3092,
      "smug": 3093,
      "remain": 3094,
      "stir": 3095,
      "def": 3096,
      "forgotten": 3097,
      "mag": 3098,
      "liber": 3099,
      "compreh": 3100,
      "dir": 3101,
      "const": 3102,
      "contra": 3103,
      "scale": 3104,
      "trade": 3105,
      "plots": 3106,
      "surface": 3107,
      "humorous": 3108,
      "members": 3109,
      "theaters": 3110,
      "produced": 3111,
      "largely": 3112,
      "food": 3113,
      "violent": 3114,
      "subtlety": 3115,
      "beneath": 3116,
      "decades": 3117,
      "known": 3118,
      "charisma": 3119,
      "gifted": 3120,
      "connect": 3121,
      "aspects": 3122,
      "glimpse": 3123,
      "creativity": 3124,
      "recycl": 3125,
      "discovery": 3126,
      "hur": 3127,
      "mil": 3128,
      "others": 3129,
      "rating": 3130,
      "sell": 3131,
      "wis": 3132,
      "ino": 3133,
      "incon": 3134,
      "redu": 3135,
      "unpleasant": 3136,
      "depict": 3137,
      "root": 3138,
      "noir": 3139,
      "actic": 3140,
      "outrage": 3141,
      "hair": 3142,
      "upt": 3143,
      "plod": 3144,
      "crim": 3145,
      "points": 3146,
      "horrif": 3147,
      "flair": 3148,
      "channel": 3149,
      "delightfully": 3150,
      "crude": 3151,
      "block": 3152,
      "deserve": 3153,
      "claim": 3154,
      "constructed": 3155,
      "beginning": 3156,
      "designed": 3157,
      "haunting": 3158,
      "public": 3159,
      "irritating": 3160,
      "industry": 3161,
      "perspective": 3162,
      "cence": 3163,
      "fro": 3164,
      "sun": 3165,
      "tick": 3166,
      "retread": 3167,
      "sea": 3168,
      "immedi": 3169,
      "irre": 3170,
      "exhilar": 3171,
      "pot": 3172,
      "space": 3173,
      "week": 3174,
      "intensity": 3175,
      "endless": 3176,
      "loose": 3177,
      "famil": 3178,
      "walk": 3179,
      "street": 3180,
      "levels": 3181,
      "confusing": 3182,
      "passionate": 3183,
      "drown": 3184,
      "particular": 3185,
      "virtually": 3186,
      "accomplished": 3187,
      "songs": 3188,
      "exhilarating": 3189,
      "ake": 3190,
      "bru": 3191,
      "hide": 3192,
      "kin": 3193,
      "nom": 3194,
      "ners": 3195,
      "requ": 3196,
      "theme": 3197,
      "lyn": 3198,
      "toss": 3199,
      "iler": 3200,
      "liday": 3201,
      "acts": 3202,
      "george": 3203,
      "near": 3204,
      "spin": 3205,
      "provide": 3206,
      "patho": 3207,
      "office": 3208,
      "drawn": 3209,
      "overly": 3210,
      "ored": 3211,
      "holiday": 3212,
      "characteriz": 3213,
      "crack": 3214,
      "dread": 3215,
      "finding": 3216,
      "generally": 3217,
      "happens": 3218,
      "transp": 3219,
      "stret": 3220,
      "quietly": 3221,
      "shakes": 3222,
      "jackson": 3223,
      "gangster": 3224,
      "consistently": 3225,
      "observations": 3226,
      "rhythms": 3227,
      "guns": 3228,
      "stereotypes": 3229,
      "affirming": 3230,
      "exploration": 3231,
      "lifting": 3232,
      "vibrant": 3233,
      "digital": 3234,
      "group": 3235,
      "professional": 3236,
      "challenging": 3237,
      "bum": 3238,
      "bomb": 3239,
      "ec": 3240,
      "gru": 3241,
      "ki": 3242,
      "mass": 3243,
      "pil": 3244,
      "va": 3245,
      "vap": 3246,
      "vamp": 3247,
      "remo": 3248,
      "reck": 3249,
      "oring": 3250,
      "entially": 3251,
      "bears": 3252,
      "essentially": 3253,
      "ambig": 3254,
      "condition": 3255,
      "funct": 3256,
      "indu": 3257,
      "acious": 3258,
      "offering": 3259,
      "ffic": 3260,
      "affair": 3261,
      "wrought": 3262,
      "played": 3263,
      "farce": 3264,
      "writers": 3265,
      "melan": 3266,
      "structure": 3267,
      "refer": 3268,
      "soundtrack": 3269,
      "releas": 3270,
      "endeav": 3271,
      "development": 3272,
      "blade": 3273,
      "limited": 3274,
      "marvelous": 3275,
      "rhythm": 3276,
      "precious": 3277,
      "accessible": 3278,
      "bitt": 3279,
      "games": 3280,
      "pian": 3281,
      "ture": 3282,
      "store": 3283,
      "orous": 3284,
      "edited": 3285,
      "unconvincing": 3286,
      "sud": 3287,
      "adult": 3288,
      "irresist": 3289,
      "upon": 3290,
      "fake": 3291,
      "disc": 3292,
      "object": 3293,
      "missing": 3294,
      "crazy": 3295,
      "persona": 3296,
      "reading": 3297,
      "eyed": 3298,
      "delights": 3299,
      "pses": 3300,
      "relevant": 3301,
      "appropri": 3302,
      "developed": 3303,
      "potential": 3304,
      "packed": 3305,
      "favorite": 3306,
      "dvd": 3307,
      "obnoxious": 3308,
      "buoyant": 3309,
      "dirty": 3310,
      "bill": 3311,
      "baf": 3312,
      "cable": 3313,
      "gold": 3314,
      "hen": 3315,
      "hus": 3316,
      "hicle": 3317,
      "ives": 3318,
      "junk": 3319,
      "pen": 3320,
      "saw": 3321,
      "vital": 3322,
      "washing": 3323,
      "inev": 3324,
      "iced": 3325,
      "chase": 3326,
      "vehicle": 3327,
      "loc": 3328,
      "loses": 3329,
      "format": 3330,
      "addition": 3331,
      "amused": 3332,
      "apl": 3333,
      "spent": 3334,
      "cliche": 3335,
      "boys": 3336,
      "cohes": 3337,
      "timely": 3338,
      "canny": 3339,
      "surround": 3340,
      "talking": 3341,
      "dub": 3342,
      "enjoyed": 3343,
      "answers": 3344,
      "aky": 3345,
      "sink": 3346,
      "distra": 3347,
      "niro": 3348,
      "born": 3349,
      "masterful": 3350,
      "south": 3351,
      "sake": 3352,
      "lush": 3353,
      "techno": 3354,
      "hugely": 3355,
      "emphas": 3356,
      "flashy": 3357,
      "pract": 3358,
      "clumsy": 3359,
      "rendered": 3360,
      "transcend": 3361,
      "changing": 3362,
      "metaphor": 3363,
      "captivating": 3364,
      "further": 3365,
      "shadow": 3366,
      "washington": 3367,
      "00": 3368,
      "bone": 3369,
      "cam": 3370,
      "don": 3371,
      "hi": 3372,
      "han": 3373,
      "mend": 3374,
      "mult": 3375,
      "incre": 3376,
      "revol": 3377,
      "report": 3378,
      "stic": 3379,
      "ision": 3380,
      "ands": 3381,
      "setting": 3382,
      "unab": 3383,
      "older": 3384,
      "empathy": 3385,
      "spell": 3386,
      "prop": 3387,
      "ption": 3388,
      "travel": 3389,
      "plotting": 3390,
      "tted": 3391,
      "hearts": 3392,
      "gently": 3393,
      "carries": 3394,
      "succum": 3395,
      "redund": 3396,
      "sensational": 3397,
      "wait": 3398,
      "deadly": 3399,
      "heaven": 3400,
      "disappointing": 3401,
      "exceptional": 3402,
      "frustration": 3403,
      "tells": 3404,
      "osity": 3405,
      "killer": 3406,
      "astonishing": 3407,
      "struggle": 3408,
      "blown": 3409,
      "achieves": 3410,
      "eloquent": 3411,
      "gradually": 3412,
      "intoxicating": 3413,
      "visceral": 3414,
      "bang": 3415,
      "danger": 3416,
      "hoff": 3417,
      "hitch": 3418,
      "lat": 3419,
      "nich": 3420,
      "ose": 3421,
      "sod": 3422,
      "smar": 3423,
      "za": 3424,
      "third": 3425,
      "incoherent": 3426,
      "rece": 3427,
      "represents": 3428,
      "theless": 3429,
      "onto": 3430,
      "itude": 3431,
      "lee": 3432,
      "unpredictable": 3433,
      "roc": 3434,
      "wholly": 3435,
      "exceed": 3436,
      "terms": 3437,
      "moviegoers": 3438,
      "astound": 3439,
      "uplifting": 3440,
      "boo": 3441,
      "itty": 3442,
      "oping": 3443,
      "heartbreaking": 3444,
      "directorial": 3445,
      "laughing": 3446,
      "crass": 3447,
      "mayhem": 3448,
      "crap": 3449,
      "kiddie": 3450,
      "brothers": 3451,
      "hands": 3452,
      "singer": 3453,
      "winner": 3454,
      "slice": 3455,
      "said": 3456,
      "presented": 3457,
      "unfocused": 3458,
      "source": 3459,
      "attered": 3460,
      "undeniable": 3461,
      "mildly": 3462,
      "conflict": 3463,
      "hoffman": 3464,
      "smarter": 3465,
      "awe": 3466,
      "cry": 3467,
      "dare": 3468,
      "eer": 3469,
      "hmer": 3470,
      "jol": 3471,
      "nes": 3472,
      "slack": 3473,
      "slip": 3474,
      "wall": 3475,
      "yes": 3476,
      "stif": 3477,
      "orious": 3478,
      "orient": 3479,
      "ray": 3480,
      "shre": 3481,
      "outstanding": 3482,
      "yous": 3483,
      "pos": 3484,
      "poem": 3485,
      "poster": 3486,
      "urday": 3487,
      "wever": 3488,
      "team": 3489,
      "mental": 3490,
      "joyous": 3491,
      "offbeat": 3492,
      "vised": 3493,
      "genial": 3494,
      "worked": 3495,
      "however": 3496,
      "saturday": 3497,
      "string": 3498,
      "knowledge": 3499,
      "graphed": 3500,
      "save": 3501,
      "exploitation": 3502,
      "exploitative": 3503,
      "affecting": 3504,
      "melodramatic": 3505,
      "spoo": 3506,
      "adequ": 3507,
      "knock": 3508,
      "standards": 3509,
      "transform": 3510,
      "wedding": 3511,
      "christmas": 3512,
      "supporting": 3513,
      "mouth": 3514,
      "williams": 3515,
      "preachy": 3516,
      "thes": 3517,
      "oul": 3518,
      "lyrical": 3519,
      "unfortun": 3520,
      "lig": 3521,
      "comment": 3522,
      "ami": 3523,
      "terror": 3524,
      "pecul": 3525,
      "ury": 3526,
      "agers": 3527,
      "spite": 3528,
      "somehow": 3529,
      "box": 3530,
      "ryan": 3531,
      "disgust": 3532,
      "ensible": 3533,
      "marg": 3534,
      "ived": 3535,
      "pleasures": 3536,
      "emotion": 3537,
      "bitter": 3538,
      "giant": 3539,
      "titles": 3540,
      "musical": 3541,
      "stuck": 3542,
      "needed": 3543,
      "parable": 3544,
      "fantastic": 3545,
      "luck": 3546,
      "grandeur": 3547,
      "dragon": 3548,
      "pati": 3549,
      "spot": 3550,
      "sympathy": 3551,
      "amounts": 3552,
      "innocence": 3553,
      "choppy": 3554,
      "introdu": 3555,
      "sensual": 3556,
      "course": 3557,
      "wickedly": 3558,
      "horrifying": 3559,
      "peculi": 3560,
      "bour": 3561,
      "ded": 3562,
      "fate": 3563,
      "foul": 3564,
      "jul": 3565,
      "moun": 3566,
      "pts": 3567,
      "pale": 3568,
      "ters": 3569,
      "uity": 3570,
      "thir": 3571,
      "thous": 3572,
      "inner": 3573,
      "erce": 3574,
      "erber": 3575,
      "reven": 3576,
      "seag": 3577,
      "rad": 3578,
      "ousness": 3579,
      "charmer": 3580,
      "endure": 3581,
      "tears": 3582,
      "placed": 3583,
      "eping": 3584,
      "flim": 3585,
      "price": 3586,
      "brought": 3587,
      "realize": 3588,
      "stein": 3589,
      "flavor": 3590,
      "handsome": 3591,
      "fierce": 3592,
      "personality": 3593,
      "skip": 3594,
      "foot": 3595,
      "difference": 3596,
      "current": 3597,
      "considered": 3598,
      "executed": 3599,
      "lady": 3600,
      "revelatory": 3601,
      "wilde": 3602,
      "immense": 3603,
      "machine": 3604,
      "astonish": 3605,
      "atmosphere": 3606,
      "stirring": 3607,
      "trademark": 3608,
      "blockb": 3609,
      "vapid": 3610,
      "remote": 3611,
      "soderber": 3612,
      "revenge": 3613,
      "seagal": 3614,
      "soderbergh": 3615,
      "aa": 3616,
      "dom": 3617,
      "dol": 3618,
      "dust": 3619,
      "gory": 3620,
      "hits": 3621,
      "jag": 3622,
      "lon": 3623,
      "lun": 3624,
      "lum": 3625,
      "nick": 3626,
      "pom": 3627,
      "rin": 3628,
      "swal": 3629,
      "inher": 3630,
      "enced": 3631,
      "atus": 3632,
      "stin": 3633,
      "educ": 3634,
      "cher": 3635,
      "unoriginal": 3636,
      "unlikable": 3637,
      "vest": 3638,
      "deed": 3639,
      "abandon": 3640,
      "roo": 3641,
      "dign": 3642,
      "shelf": 3643,
      "lawren": 3644,
      "ument": 3645,
      "aggress": 3646,
      "clim": 3647,
      "accur": 3648,
      "insky": 3649,
      "laughable": 3650,
      "bigger": 3651,
      "aware": 3652,
      "resol": 3653,
      "simplistic": 3654,
      "teenagers": 3655,
      "banal": 3656,
      "larger": 3657,
      "confident": 3658,
      "murky": 3659,
      "understanding": 3660,
      "attract": 3661,
      "positive": 3662,
      "potentially": 3663,
      "vividly": 3664,
      "hopeful": 3665,
      "collection": 3666,
      "resonant": 3667,
      "random": 3668,
      "compromising": 3669,
      "intricate": 3670,
      "endeavor": 3671,
      "lawrence": 3672,
      "ahead": 3673,
      "bunch": 3674,
      "east": 3675,
      "eager": 3676,
      "snow": 3677,
      "tend": 3678,
      "rehas": 3679,
      "alan": 3680,
      "deem": 3681,
      "adam": 3682,
      "filmed": 3683,
      "lace": 3684,
      "lapses": 3685,
      "gem": 3686,
      "erswe": 3687,
      "exper": 3688,
      "term": 3689,
      "sober": 3690,
      "urous": 3691,
      "somewhere": 3692,
      "auto": 3693,
      "flin": 3694,
      "fred": 3695,
      "wars": 3696,
      "spirits": 3697,
      "biting": 3698,
      "resour": 3699,
      "buff": 3700,
      "freshness": 3701,
      "fix": 3702,
      "witness": 3703,
      "portrayal": 3704,
      "nonsense": 3705,
      "iety": 3706,
      "foo": 3707,
      "suffering": 3708,
      "eventually": 3709,
      "absurdity": 3710,
      "charismatic": 3711,
      "poignancy": 3712,
      "deftly": 3713,
      "japanese": 3714,
      "vampire": 3715,
      "bitterswe": 3716,
      "revolution": 3717,
      "experiment": 3718,
      "bittersweet": 3719,
      "bon": 3720,
      "eks": 3721,
      "idio": 3722,
      "kore": 3723,
      "luster": 3724,
      "ping": 3725,
      "sive": 3726,
      "udes": 3727,
      "thumb": 3728,
      "incess": 3729,
      "isive": 3730,
      "asive": 3731,
      "chest": 3732,
      "depart": 3733,
      "loved": 3734,
      "adoles": 3735,
      "essence": 3736,
      "shif": 3737,
      "territ": 3738,
      "neat": 3739,
      "aste": 3740,
      "notch": 3741,
      "blend": 3742,
      "serves": 3743,
      "despair": 3744,
      "ultane": 3745,
      "udlin": 3746,
      "holo": 3747,
      "century": 3748,
      "angst": 3749,
      "minds": 3750,
      "results": 3751,
      "appear": 3752,
      "distaste": 3753,
      "committed": 3754,
      "simultane": 3755,
      "richer": 3756,
      "strain": 3757,
      "transl": 3758,
      "friends": 3759,
      "sophom": 3760,
      "damn": 3761,
      "italian": 3762,
      "folks": 3763,
      "mixture": 3764,
      "example": 3765,
      "touches": 3766,
      "release": 3767,
      "witted": 3768,
      "tensions": 3769,
      "fights": 3770,
      "instantly": 3771,
      "spectacular": 3772,
      "combination": 3773,
      "involved": 3774,
      "square": 3775,
      "shaped": 3776,
      "consistent": 3777,
      "pulls": 3778,
      "enthusiasm": 3779,
      "emerges": 3780,
      "vague": 3781,
      "frightening": 3782,
      "motivated": 3783,
      "proceedings": 3784,
      "unfolds": 3785,
      "plodding": 3786,
      "footage": 3787,
      "territory": 3788,
      "simultaneously": 3789,
      "dick": 3790,
      "dash": 3791,
      "daring": 3792,
      "gel": 3793,
      "kis": 3794,
      "ov": 3795,
      "rupt": 3796,
      "tu": 3797,
      "analy": 3798,
      "return": 3799,
      "sters": 3800,
      "tool": 3801,
      "total": 3802,
      "icon": 3803,
      "ask": 3804,
      "ilt": 3805,
      "beach": 3806,
      "impe": 3807,
      "deeper": 3808,
      "whate": 3809,
      "powers": 3810,
      "peter": 3811,
      "ids": 3812,
      "igno": 3813,
      "board": 3814,
      "teeth": 3815,
      "iza": 3816,
      "underst": 3817,
      "pleaser": 3818,
      "collect": 3819,
      "result": 3820,
      "views": 3821,
      "trite": 3822,
      "queen": 3823,
      "leaving": 3824,
      "happiness": 3825,
      "barber": 3826,
      "balanced": 3827,
      "impression": 3828,
      "capture": 3829,
      "195": 3830,
      "honestly": 3831,
      "artists": 3832,
      "faster": 3833,
      "meaningful": 3834,
      "concerned": 3835,
      "smoo": 3836,
      "clueless": 3837,
      "spooky": 3838,
      "commentary": 3839,
      "dignity": 3840,
      "flinching": 3841,
      "whatever": 3842,
      "12": 3843,
      "70s": 3844,
      "apo": 3845,
      "bid": 3846,
      "bite": 3847,
      "ggy": 3848,
      "jim": 3849,
      "oli": 3850,
      "pse": 3851,
      "rough": 3852,
      "sane": 3853,
      "zo": 3854,
      "thre": 3855,
      "encou": 3856,
      "envir": 3857,
      "stim": 3858,
      "itivity": 3859,
      "asingly": 3860,
      "illy": 3861,
      "chur": 3862,
      "moore": 3863,
      "unusual": 3864,
      "unforced": 3865,
      "improb": 3866,
      "forward": 3867,
      "mare": 3868,
      "magn": 3869,
      "roph": 3870,
      "subl": 3871,
      "nowhere": 3872,
      "kevin": 3873,
      "iran": 3874,
      "exotic": 3875,
      "odds": 3876,
      "perverse": 3877,
      "empower": 3878,
      "button": 3879,
      "wears": 3880,
      "timing": 3881,
      "endlessly": 3882,
      "evol": 3883,
      "creating": 3884,
      "father": 3885,
      "measure": 3886,
      "fling": 3887,
      "surance": 3888,
      "compar": 3889,
      "market": 3890,
      "visit": 3891,
      "ilet": 3892,
      "ciful": 3893,
      "sweeping": 3894,
      "sweetly": 3895,
      "sweetness": 3896,
      "animal": 3897,
      "sadly": 3898,
      "maintain": 3899,
      "ificent": 3900,
      "values": 3901,
      "insights": 3902,
      "structured": 3903,
      "adventurous": 3904,
      "soulful": 3905,
      "cali": 3906,
      "calcul": 3907,
      "nightmare": 3908,
      "fluff": 3909,
      "details": 3910,
      "fanciful": 3911,
      "critical": 3912,
      "shooting": 3913,
      "improve": 3914,
      "scope": 3915,
      "niche": 3916,
      "numbers": 3917,
      "indian": 3918,
      "desperate": 3919,
      "intentionally": 3920,
      "determined": 3921,
      "predecessor": 3922,
      "appropriate": 3923,
      "increasingly": 3924,
      "immensely": 3925,
      "encoura": 3926,
      "magnificent": 3927,
      "bes": 3928,
      "ders": 3929,
      "dau": 3930,
      "haps": 3931,
      "james": 3932,
      "mile": 3933,
      "sill": 3934,
      "tight": 3935,
      "uation": 3936,
      "vity": 3937,
      "wow": 3938,
      "zero": 3939,
      "enthr": 3940,
      "edit": 3941,
      "losing": 3942,
      "formed": 3943,
      "whom": 3944,
      "ador": 3945,
      "adren": 3946,
      "diver": 3947,
      "anti": 3948,
      "pretends": 3949,
      "spider": 3950,
      "spring": 3951,
      "heal": 3952,
      "timeless": 3953,
      "plaus": 3954,
      "afric": 3955,
      "grab": 3956,
      "rank": 3957,
      "seeking": 3958,
      "myth": 3959,
      "rowing": 3960,
      "carried": 3961,
      "type": 3962,
      "cutting": 3963,
      "ease": 3964,
      "knowing": 3965,
      "polished": 3966,
      "satisfied": 3967,
      "features": 3968,
      "ticket": 3969,
      "harrowing": 3970,
      "contriv": 3971,
      "contribut": 3972,
      "199": 3973,
      "dynam": 3974,
      "inspiration": 3975,
      "extravag": 3976,
      "spoof": 3977,
      "substant": 3978,
      "delivered": 3979,
      "movements": 3980,
      "shapeless": 3981,
      "stays": 3982,
      "mission": 3983,
      "literary": 3984,
      "demands": 3985,
      "demanding": 3986,
      "language": 3987,
      "relentlessly": 3988,
      "villain": 3989,
      "protagonist": 3990,
      "magical": 3991,
      "multi": 3992,
      "patience": 3993,
      "adrenal": 3994,
      "glo": 3995,
      "ior": 3996,
      "jones": 3997,
      "narc": 3998,
      "pper": 3999,
      "sion": 4000,
      "tiny": 4001,
      "uable": 4002,
      "wd": 4003,
      "erotic": 4004,
      "atroc": 4005,
      "staged": 4006,
      "esh": 4007,
      "icing": 4008,
      "asks": 4009,
      "unlike": 4010,
      "uncompromising": 4011,
      "racial": 4012,
      "ceful": 4013,
      "common": 4014,
      "erson": 4015,
      "poon": 4016,
      "fulfilling": 4017,
      "scors": 4018,
      "artistic": 4019,
      "illum": 4020,
      "prove": 4021,
      "wea": 4022,
      "ruci": 4023,
      "boast": 4024,
      "ety": 4025,
      "aud": 4026,
      "paul": 4027,
      "atingly": 4028,
      "early": 4029,
      "brand": 4030,
      "imperson": 4031,
      "due": 4032,
      "undercut": 4033,
      "clean": 4034,
      "hoot": 4035,
      "longer": 4036,
      "appalling": 4037,
      "carry": 4038,
      "monty": 4039,
      "buy": 4040,
      "buck": 4041,
      "excruci": 4042,
      "broom": 4043,
      "happening": 4044,
      "sadness": 4045,
      "slug": 4046,
      "friday": 4047,
      "popul": 4048,
      "popular": 4049,
      "valuable": 4050,
      "startling": 4051,
      "convinced": 4052,
      "scient": 4053,
      "strike": 4054,
      "grows": 4055,
      "credible": 4056,
      "journal": 4057,
      "existential": 4058,
      "instinct": 4059,
      "relief": 4060,
      "layers": 4061,
      "burns": 4062,
      "homage": 4063,
      "sketchy": 4064,
      "martin": 4065,
      "scape": 4066,
      "distinguished": 4067,
      "intellectual": 4068,
      "responsible": 4069,
      "relatively": 4070,
      "nomination": 4071,
      "nichol": 4072,
      "unfortunately": 4073,
      "resourceful": 4074,
      "dickens": 4075,
      "african": 4076,
      "scorsese": 4077,
      "ah": 4078,
      "aking": 4079,
      "bility": 4080,
      "dul": 4081,
      "eat": 4082,
      "gers": 4083,
      "gap": 4084,
      "sical": 4085,
      "uit": 4086,
      "vors": 4087,
      "state": 4088,
      "search": 4089,
      "uninspired": 4090,
      "deb": 4091,
      "degre": 4092,
      "loves": 4093,
      "local": 4094,
      "aby": 4095,
      "ablish": 4096,
      "ford": 4097,
      "forgive": 4098,
      "vern": 4099,
      "rote": 4100,
      "roles": 4101,
      "conven": 4102,
      "eman": 4103,
      "heard": 4104,
      "lesson": 4105,
      "tep": 4106,
      "establish": 4107,
      "princ": 4108,
      "screenwriter": 4109,
      "gritty": 4110,
      "seek": 4111,
      "centric": 4112,
      "pressed": 4113,
      "belong": 4114,
      "nerve": 4115,
      "broken": 4116,
      "witless": 4117,
      "police": 4118,
      "singing": 4119,
      "finish": 4120,
      "window": 4121,
      "heads": 4122,
      "oked": 4123,
      "slick": 4124,
      "honesty": 4125,
      "lerable": 4126,
      "lurid": 4127,
      "fool": 4128,
      "deserved": 4129,
      "suffer": 4130,
      "signs": 4131,
      "ambition": 4132,
      "drive": 4133,
      "presence": 4134,
      "finale": 4135,
      "dancing": 4136,
      "celebration": 4137,
      "sparkling": 4138,
      "costum": 4139,
      "apparently": 4140,
      "whimsical": 4141,
      "wrenching": 4142,
      "fabric": 4143,
      "disguise": 4144,
      "candy": 4145,
      "teacher": 4146,
      "husband": 4147,
      "later": 4148,
      "flimsy": 4149,
      "degree": 4150,
      "princip": 4151,
      "blast": 4152,
      "bbled": 4153,
      "cid": 4154,
      "gain": 4155,
      "gloss": 4156,
      "hill": 4157,
      "mitt": 4158,
      "pity": 4159,
      "anion": 4160,
      "enom": 4161,
      "stily": 4162,
      "ario": 4163,
      "toilet": 4164,
      "icip": 4165,
      "chuck": 4166,
      "sees": 4167,
      "racy": 4168,
      "demo": 4169,
      "loving": 4170,
      "ghet": 4171,
      "viously": 4172,
      "makers": 4173,
      "maudlin": 4174,
      "sugar": 4175,
      "percept": 4176,
      "scare": 4177,
      "height": 4178,
      "charms": 4179,
      "hastily": 4180,
      "evo": 4181,
      "account": 4182,
      "tradition": 4183,
      "creature": 4184,
      "phenom": 4185,
      "assass": 4186,
      "companion": 4187,
      "desc": 4188,
      "merit": 4189,
      "warri": 4190,
      "particip": 4191,
      "english": 4192,
      "hole": 4193,
      "imagery": 4194,
      "belt": 4195,
      "treasure": 4196,
      "tremend": 4197,
      "biggest": 4198,
      "satir": 4199,
      "monot": 4200,
      "scenery": 4201,
      "cynical": 4202,
      "morning": 4203,
      "appears": 4204,
      "distinct": 4205,
      "corny": 4206,
      "paran": 4207,
      "walked": 4208,
      "cloying": 4209,
      "held": 4210,
      "leaden": 4211,
      "strikes": 4212,
      "seconds": 4213,
      "technical": 4214,
      "fluid": 4215,
      "decid": 4216,
      "shocking": 4217,
      "earnestness": 4218,
      "relies": 4219,
      "explic": 4220,
      "added": 4221,
      "enthusiastic": 4222,
      "faced": 4223,
      "connection": 4224,
      "guessing": 4225,
      "brutally": 4226,
      "escapism": 4227,
      "tortured": 4228,
      "dependent": 4229,
      "recycled": 4230,
      "depiction": 4231,
      "rooting": 4232,
      "outrageous": 4233,
      "inevitable": 4234,
      "aplomb": 4235,
      "barbershop": 4236,
      "ghetto": 4237,
      "phenomen": 4238,
      "13": 4239,
      "dut": 4240,
      "dge": 4241,
      "evid": 4242,
      "ezy": 4243,
      "hap": 4244,
      "hust": 4245,
      "hugh": 4246,
      "ium": 4247,
      "ians": 4248,
      "lump": 4249,
      "ost": 4250,
      "sque": 4251,
      "urable": 4252,
      "rep": 4253,
      "rely": 4254,
      "lem": 4255,
      "chilly": 4256,
      "unfaithful": 4257,
      "image": 4258,
      "raid": 4259,
      "verve": 4260,
      "suit": 4261,
      "nostal": 4262,
      "expert": 4263,
      "terribly": 4264,
      "ummy": 4265,
      "doze": 4266,
      "qual": 4267,
      "manage": 4268,
      "urge": 4269,
      "inted": 4270,
      "herzo": 4271,
      "paid": 4272,
      "overwrought": 4273,
      "afraid": 4274,
      "lingering": 4275,
      "nevertheless": 4276,
      "oblig": 4277,
      "igni": 4278,
      "giving": 4279,
      "glass": 4280,
      "messages": 4281,
      "safe": 4282,
      "venile": 4283,
      "fairy": 4284,
      "charmless": 4285,
      "dumbed": 4286,
      "soulless": 4287,
      "reasonably": 4288,
      "terrifying": 4289,
      "lively": 4290,
      "benigni": 4291,
      "delicious": 4292,
      "mysterious": 4293,
      "fighting": 4294,
      "shape": 4295,
      "figures": 4296,
      "communal": 4297,
      "delivering": 4298,
      "variety": 4299,
      "ivalent": 4300,
      "juvenile": 4301,
      "swim": 4302,
      "desperately": 4303,
      "testament": 4304,
      "admire": 4305,
      "intentions": 4306,
      "alternative": 4307,
      "lifeless": 4308,
      "breathtakingly": 4309,
      "insanely": 4310,
      "characterizations": 4311,
      "references": 4312,
      "sudden": 4313,
      "irresistible": 4314,
      "cohesive": 4315,
      "sublime": 4316,
      "convenient": 4317,
      "herzog": 4318,
      "cro": 4319,
      "cies": 4320,
      "hon": 4321,
      "ix": 4322,
      "jaw": 4323,
      "rated": 4324,
      "russ": 4325,
      "sily": 4326,
      "tab": 4327,
      "vine": 4328,
      "wra": 4329,
      "yingly": 4330,
      "reput": 4331,
      "oning": 4332,
      "orate": 4333,
      "icy": 4334,
      "leon": 4335,
      "chick": 4336,
      "implaus": 4337,
      "raunch": 4338,
      "ghost": 4339,
      "forces": 4340,
      "rope": 4341,
      "within": 4342,
      "moviemaking": 4343,
      "peare": 4344,
      "usive": 4345,
      "spont": 4346,
      "ustroph": 4347,
      "endor": 4348,
      "trailer": 4349,
      "woo": 4350,
      "meat": 4351,
      "display": 4352,
      "international": 4353,
      "minis": 4354,
      "desire": 4355,
      "grac": 4356,
      "speak": 4357,
      "dual": 4358,
      "newcom": 4359,
      "warning": 4360,
      "parts": 4361,
      "below": 4362,
      "firing": 4363,
      "nia": 4364,
      "theatrical": 4365,
      "smartly": 4366,
      "ridden": 4367,
      "quirks": 4368,
      "wave": 4369,
      "tongue": 4370,
      "puzz": 4371,
      "adventures": 4372,
      "198": 4373,
      "psychology": 4374,
      "techn": 4375,
      "claustroph": 4376,
      "gging": 4377,
      "splendor": 4378,
      "dogs": 4379,
      "stunt": 4380,
      "breaks": 4381,
      "episod": 4382,
      "guilt": 4383,
      "rises": 4384,
      "clumsily": 4385,
      "brutal": 4386,
      "integrity": 4387,
      "deceptively": 4388,
      "describe": 4389,
      "constant": 4390,
      "shakespeare": 4391,
      "discip": 4392,
      "dubbed": 4393,
      "hitchcock": 4394,
      "exceedingly": 4395,
      "astonishingly": 4396,
      "encouraging": 4397,
      "silliness": 4398,
      "spontane": 4399,
      "cath": 4400,
      "daw": 4401,
      "dys": 4402,
      "effic": 4403,
      "jason": 4404,
      "kins": 4405,
      "rings": 4406,
      "rising": 4407,
      "udo": 4408,
      "vit": 4409,
      "wing": 4410,
      "inated": 4411,
      "station": 4412,
      "oric": 4413,
      "icature": 4414,
      "letting": 4415,
      "chris": 4416,
      "cted": 4417,
      "separ": 4418,
      "unlikely": 4419,
      "lop": 4420,
      "viet": 4421,
      "roger": 4422,
      "supre": 4423,
      "feces": 4424,
      "conj": 4425,
      "conco": 4426,
      "tasty": 4427,
      "spare": 4428,
      "idel": 4429,
      "provid": 4430,
      "web": 4431,
      "clin": 4432,
      "ishes": 4433,
      "guar": 4434,
      "woe": 4435,
      "creation": 4436,
      "directing": 4437,
      "phony": 4438,
      "proud": 4439,
      "plotted": 4440,
      "talk": 4441,
      "serve": 4442,
      "screenwriting": 4443,
      "angle": 4444,
      "caricature": 4445,
      "looked": 4446,
      "craf": 4447,
      "caust": 4448,
      "distin": 4449,
      "distur": 4450,
      "corpor": 4451,
      "halfway": 4452,
      "younger": 4453,
      "wallace": 4454,
      "clock": 4455,
      "ification": 4456,
      "helps": 4457,
      "reflect": 4458,
      "fellow": 4459,
      "basic": 4460,
      "affected": 4461,
      "hopkins": 4462,
      "landscape": 4463,
      "drop": 4464,
      "touched": 4465,
      "straightforward": 4466,
      "private": 4467,
      "expression": 4468,
      "coherence": 4469,
      "labored": 4470,
      "occasional": 4471,
      "forceful": 4472,
      "alternately": 4473,
      "appreciate": 4474,
      "draws": 4475,
      "embarrassment": 4476,
      "significant": 4477,
      "traditional": 4478,
      "chaotic": 4479,
      "scratch": 4480,
      "shamelessly": 4481,
      "somber": 4482,
      "overwhelming": 4483,
      "locations": 4484,
      "oriented": 4485,
      "distasteful": 4486,
      "sophomoric": 4487,
      "ovich": 4488,
      "environ": 4489,
      "dullest": 4490,
      "belongs": 4491,
      "vietnam": 4492,
      "ba": 4493,
      "bits": 4494,
      "bir": 4495,
      "dying": 4496,
      "factor": 4497,
      "farts": 4498,
      "hat": 4499,
      "hitting": 4500,
      "kum": 4501,
      "limp": 4502,
      "ns": 4503,
      "ogy": 4504,
      "sma": 4505,
      "swo": 4506,
      "influ": 4507,
      "indeed": 4508,
      "inexplic": 4509,
      "regre": 4510,
      "organ": 4511,
      "alle": 4512,
      "learn": 4513,
      "iled": 4514,
      "imitation": 4515,
      "race": 4516,
      "mac": 4517,
      "max": 4518,
      "suited": 4519,
      "amuse": 4520,
      "amalan": 4521,
      "diversion": 4522,
      "femin": 4523,
      "consu": 4524,
      "soggy": 4525,
      "emplo": 4526,
      "gos": 4527,
      "useless": 4528,
      "charine": 4529,
      "charged": 4530,
      "copy": 4531,
      "insist": 4532,
      "flesh": 4533,
      "evening": 4534,
      "izz": 4535,
      "achingly": 4536,
      "speed": 4537,
      "screenwriters": 4538,
      "rowdy": 4539,
      "anski": 4540,
      "wooden": 4541,
      "choices": 4542,
      "misogy": 4543,
      "cram": 4544,
      "showtime": 4545,
      "buried": 4546,
      "plan": 4547,
      "handled": 4548,
      "struction": 4549,
      "polanski": 4550,
      "tricks": 4551,
      "generation": 4552,
      "wanting": 4553,
      "deliber": 4554,
      "logically": 4555,
      "richly": 4556,
      "childhood": 4557,
      "extended": 4558,
      "equal": 4559,
      "equivalent": 4560,
      "hopeless": 4561,
      "portions": 4562,
      "benef": 4563,
      "disappointed": 4564,
      "weirdly": 4565,
      "consciously": 4566,
      "openness": 4567,
      "saccharine": 4568,
      "christian": 4569,
      "embraces": 4570,
      "lifts": 4571,
      "society": 4572,
      "drugs": 4573,
      "screaming": 4574,
      "ingenious": 4575,
      "shyamalan": 4576,
      "eccentric": 4577,
      "shrewd": 4578,
      "inherent": 4579,
      "eastwood": 4580,
      "thumbs": 4581,
      "analyze": 4582,
      "enthralling": 4583,
      "hab": 4584,
      "jon": 4585,
      "sag": 4586,
      "sack": 4587,
      "xed": 4588,
      "tha": 4589,
      "inane": 4590,
      "incompetent": 4591,
      "inhab": 4592,
      "enig": 4593,
      "onscreen": 4594,
      "stro": 4595,
      "stone": 4596,
      "assem": 4597,
      "ctim": 4598,
      "behold": 4599,
      "sear": 4600,
      "uncanny": 4601,
      "unflinching": 4602,
      "forts": 4603,
      "lips": 4604,
      "vert": 4605,
      "utions": 4606,
      "ado": 4607,
      "amy": 4608,
      "shod": 4609,
      "olation": 4610,
      "pet": 4611,
      "perhaps": 4612,
      "neo": 4613,
      "artif": 4614,
      "articul": 4615,
      "area": 4616,
      "tached": 4617,
      "aging": 4618,
      "ifer": 4619,
      "ifying": 4620,
      "bodies": 4621,
      "acade": 4622,
      "greek": 4623,
      "ension": 4624,
      "intermitt": 4625,
      "martha": 4626,
      "minim": 4627,
      "players": 4628,
      "grind": 4629,
      "efforts": 4630,
      "syn": 4631,
      "lackluster": 4632,
      "cheese": 4633,
      "woody": 4634,
      "background": 4635,
      "capacity": 4636,
      "dawn": 4637,
      "generous": 4638,
      "wondering": 4639,
      "contro": 4640,
      "producer": 4641,
      "parody": 4642,
      "experiences": 4643,
      "sensical": 4644,
      "engaged": 4645,
      "maintains": 4646,
      "started": 4647,
      "profile": 4648,
      "nonsensical": 4649,
      "politically": 4650,
      "confid": 4651,
      "invention": 4652,
      "inspirational": 4653,
      "delicately": 4654,
      "driven": 4655,
      "personalities": 4656,
      "catch": 4657,
      "tragedies": 4658,
      "severe": 4659,
      "rewards": 4660,
      "numbingly": 4661,
      "vulner": 4662,
      "rapid": 4663,
      "emerge": 4664,
      "gloriously": 4665,
      "sketch": 4666,
      "sanctim": 4667,
      "throws": 4668,
      "whimsy": 4669,
      "transcends": 4670,
      "expense": 4671,
      "hunter": 4672,
      "chinese": 4673,
      "required": 4674,
      "ambiguous": 4675,
      "peculiar": 4676,
      "swallow": 4677,
      "pseudo": 4678,
      "iranian": 4679,
      "substantial": 4680,
      "broomfield": 4681,
      "vitality": 4682,
      "guarante": 4683,
      "inhabit": 4684,
      "artifice": 4685,
      "intermittently": 4686,
      "bage": 4687,
      "cran": 4688,
      "dic": 4689,
      "drun": 4690,
      "ego": 4691,
      "ets": 4692,
      "fist": 4693,
      "gish": 4694,
      "gasp": 4695,
      "hid": 4696,
      "knew": 4697,
      "kline": 4698,
      "rors": 4699,
      "ties": 4700,
      "vac": 4701,
      "went": 4702,
      "inent": 4703,
      "invest": 4704,
      "ann": 4705,
      "returns": 4706,
      "redeem": 4707,
      "theart": 4708,
      "thematic": 4709,
      "aled": 4710,
      "argent": 4711,
      "lear": 4712,
      "asured": 4713,
      "uncomm": 4714,
      "ghter": 4715,
      "verbal": 4716,
      "rober": 4717,
      "compla": 4718,
      "riage": 4719,
      "divine": 4720,
      "law": 4721,
      "usal": 4722,
      "wear": 4723,
      "rude": 4724,
      "author": 4725,
      "ptuous": 4726,
      "trapp": 4727,
      "insip": 4728,
      "dramat": 4729,
      "prise": 4730,
      "marriage": 4731,
      "ranks": 4732,
      "myself": 4733,
      "engage": 4734,
      "host": 4735,
      "thinks": 4736,
      "scenario": 4737,
      "misery": 4738,
      "built": 4739,
      "keeping": 4740,
      "sumptuous": 4741,
      "possibilities": 4742,
      "borrow": 4743,
      "videos": 4744,
      "barrel": 4745,
      "explore": 4746,
      "mainly": 4747,
      "finely": 4748,
      "fallen": 4749,
      "topic": 4750,
      "subtly": 4751,
      "garbage": 4752,
      "slowly": 4753,
      "complexity": 4754,
      "understands": 4755,
      "destination": 4756,
      "fantasies": 4757,
      "inspire": 4758,
      "devices": 4759,
      "slapdash": 4760,
      "expressive": 4761,
      "bringing": 4762,
      "amaz": 4763,
      "intimacy": 4764,
      "critic": 4765,
      "actresses": 4766,
      "labor": 4767,
      "twenty": 4768,
      "conceived": 4769,
      "layered": 4770,
      "rushed": 4771,
      "savvy": 4772,
      "fuzzy": 4773,
      "thrown": 4774,
      "photography": 4775,
      "sarandon": 4776,
      "technology": 4777,
      "rehash": 4778,
      "kissinger": 4779,
      "empowerment": 4780,
      "sluggish": 4781,
      "locales": 4782,
      "tremendous": 4783,
      "uncommonly": 4784,
      "trappings": 4785,
      "insipid": 4786,
      "aes": 4787,
      "caut": 4788,
      "drum": 4789,
      "foc": 4790,
      "gig": 4791,
      "jac": 4792,
      "juni": 4793,
      "kn": 4794,
      "rill": 4795,
      "sly": 4796,
      "vs": 4797,
      "wound": 4798,
      "angu": 4799,
      "erun": 4800,
      "reno": 4801,
      "encounter": 4802,
      "inging": 4803,
      "edgy": 4804,
      "aside": 4805,
      "chab": 4806,
      "elab": 4807,
      "unexpect": 4808,
      "unbelievable": 4809,
      "unbear": 4810,
      "dealing": 4811,
      "uloid": 4812,
      "lope": 4813,
      "abby": 4814,
      "noble": 4815,
      "riot": 4816,
      "laz": 4817,
      "olic": 4818,
      "irony": 4819,
      "tay": 4820,
      "illustr": 4821,
      "roman": 4822,
      "preposter": 4823,
      "weep": 4824,
      "weeks": 4825,
      "istically": 4826,
      "mented": 4827,
      "mely": 4828,
      "mechan": 4829,
      "fled": 4830,
      "flam": 4831,
      "flour": 4832,
      "dramatically": 4833,
      "assa": 4834,
      "overlong": 4835,
      "ief": 4836,
      "surreal": 4837,
      "blan": 4838,
      "impul": 4839,
      "famous": 4840,
      "pleasurable": 4841,
      "attitude": 4842,
      "choice": 4843,
      "stands": 4844,
      "backs": 4845,
      "craw": 4846,
      "bub": 4847,
      "breezy": 4848,
      "daily": 4849,
      "sincer": 4850,
      "distance": 4851,
      "context": 4852,
      "cleverness": 4853,
      "portrays": 4854,
      "impressively": 4855,
      "structive": 4856,
      "convince": 4857,
      "refusal": 4858,
      "drags": 4859,
      "hoping": 4860,
      "problematic": 4861,
      "symbol": 4862,
      "splash": 4863,
      "weirdness": 4864,
      "celebrates": 4865,
      "scott": 4866,
      "breakthrough": 4867,
      "reminds": 4868,
      "complications": 4869,
      "incisive": 4870,
      "secrets": 4871,
      "martial": 4872,
      "stereotypical": 4873,
      "***": 4874,
      "court": 4875,
      "embarrassed": 4876,
      "parker": 4877,
      "celluloid": 4878,
      "contradict": 4879,
      "familial": 4880,
      "functional": 4881,
      "released": 4882,
      "astounding": 4883,
      "disgusting": 4884,
      "buffs": 4885,
      "holocaust": 4886,
      "improbable": 4887,
      "graceless": 4888,
      "dysfunctional": 4889,
      "supremely": 4890,
      "distinctive": 4891,
      "regret": 4892,
      "elaborate": 4893,
      "unexpectedly": 4894,
      "lopez": 4895,
      "sincerity": 4896,
      "brow": 4897,
      "dar": 4898,
      "dated": 4899,
      "gger": 4900,
      "hung": 4901,
      "iently": 4902,
      "kong": 4903,
      "kiss": 4904,
      "kicking": 4905,
      "lends": 4906,
      "lunch": 4907,
      "nau": 4908,
      "ral": 4909,
      "wash": 4910,
      "zard": 4911,
      "incoherence": 4912,
      "retro": 4913,
      "replaced": 4914,
      "reminis": 4915,
      "enh": 4916,
      "enha": 4917,
      "sta": 4918,
      "altogether": 4919,
      "ismo": 4920,
      "arg": 4921,
      "arrest": 4922,
      "lean": 4923,
      "beast": 4924,
      "lovers": 4925,
      "rig": 4926,
      "shi": 4927,
      "shan": 4928,
      "keen": 4929,
      "actual": 4930,
      "fee": 4931,
      "irk": 4932,
      "iron": 4933,
      "youth": 4934,
      "exit": 4935,
      "exposition": 4936,
      "pow": 4937,
      "convey": 4938,
      "emper": 4939,
      "goo": 4940,
      "precise": 4941,
      "boom": 4942,
      "ours": 4943,
      "dispos": 4944,
      "talky": 4945,
      "marine": 4946,
      "subculture": 4947,
      "yearning": 4948,
      "trifle": 4949,
      "humorless": 4950,
      "hokum": 4951,
      "trees": 4952,
      "gyll": 4953,
      "athers": 4954,
      "sequential": 4955,
      "gles": 4956,
      "expectation": 4957,
      "chances": 4958,
      "barry": 4959,
      "hybrid": 4960,
      "surely": 4961,
      "harsh": 4962,
      "harry": 4963,
      "brilliantly": 4964,
      "settles": 4965,
      "balls": 4966,
      "metro": 4967,
      "seats": 4968,
      "chills": 4969,
      "existed": 4970,
      "shocks": 4971,
      "legend": 4972,
      "shake": 4973,
      "movement": 4974,
      "elegantly": 4975,
      "respectable": 4976,
      "following": 4977,
      "infidel": 4978,
      "desperation": 4979,
      "mistake": 4980,
      "insulting": 4981,
      "fisher": 4982,
      "loads": 4983,
      "drawing": 4984,
      "accents": 4985,
      "giddy": 4986,
      "enormously": 4987,
      "comprehensible": 4988,
      "inconsequential": 4989,
      "pathology": 4990,
      "dreadful": 4991,
      "redundant": 4992,
      "bourne": 4993,
      "resolutely": 4994,
      "adolescent": 4995,
      "shifting": 4996,
      "ignored": 4997,
      "diverting": 4998,
      "instincts": 4999,
      "satirical": 5000,
      "newcomer": 5001,
      "technically": 5002,
      "planet": 5003,
      "junior": 5004,
      "hungry": 5005,
      "reminiscent": 5006,
      "enhaal": 5007,
      "gyllenhaal": 5008,
      "infidelity": 5009,
      "15": 5010,
      "brush": 5011,
      "cil": 5012,
      "cage": 5013,
      "ccable": 5014,
      "dad": 5015,
      "fif": 5016,
      "fud": 5017,
      "gul": 5018,
      "gious": 5019,
      "gender": 5020,
      "hang": 5021,
      "jar": 5022,
      "jarring": 5023,
      "sno": 5024,
      "tically": 5025,
      "twin": 5026,
      "ule": 5027,
      "inse": 5028,
      "inject": 5029,
      "reel": 5030,
      "ilarly": 5031,
      "ilted": 5032,
      "bearing": 5033,
      "undead": 5034,
      "unusually": 5035,
      "unfulfilling": 5036,
      "immer": 5037,
      "ulous": 5038,
      "nold": 5039,
      "noise": 5040,
      "adds": 5041,
      "shining": 5042,
      "concentr": 5043,
      "condesc": 5044,
      "scattered": 5045,
      "span": 5046,
      "progress": 5047,
      "notion": 5048,
      "enduring": 5049,
      "cles": 5050,
      "boat": 5051,
      "intolerable": 5052,
      "dismissed": 5053,
      "freaks": 5054,
      "seren": 5055,
      "jeal": 5056,
      "downbeat": 5057,
      "obviously": 5058,
      "hollow": 5059,
      "cia": 5060,
      "highest": 5061,
      "miser": 5062,
      "elevate": 5063,
      "putting": 5064,
      "similarly": 5065,
      "predictably": 5066,
      "ondz": 5067,
      "nail": 5068,
      "midnight": 5069,
      "crucial": 5070,
      "ballot": 5071,
      "finest": 5072,
      "tones": 5073,
      "bank": 5074,
      "bloody": 5075,
      "sorrow": 5076,
      "base": 5077,
      "souls": 5078,
      "imaginable": 5079,
      "fragment": 5080,
      "confused": 5081,
      "griev": 5082,
      "solondz": 5083,
      "treats": 5084,
      "historically": 5085,
      "existence": 5086,
      "graceful": 5087,
      "communic": 5088,
      "blair": 5089,
      "gangs": 5090,
      "laden": 5091,
      "aims": 5092,
      "concern": 5093,
      "changes": 5094,
      "curiously": 5095,
      "cartoonish": 5096,
      "atmospher": 5097,
      "hallmark": 5098,
      "record": 5099,
      "enormous": 5100,
      "criminal": 5101,
      "shadows": 5102,
      "jolt": 5103,
      "impeccable": 5104,
      "illumin": 5105,
      "claustrophob": 5106,
      "minimal": 5107,
      "51": 5108,
      "88": 5109,
      "cure": 5110,
      "dome": 5111,
      "dup": 5112,
      "fond": 5113,
      "ique": 5114,
      "lor": 5115,
      "lust": 5116,
      "oh": 5117,
      "rut": 5118,
      "ske": 5119,
      "tart": 5120,
      "uh": 5121,
      "independent": 5122,
      "ert": 5123,
      "ret": 5124,
      "envelop": 5125,
      "sting": 5126,
      "stas": 5127,
      "stilted": 5128,
      "order": 5129,
      "eddie": 5130,
      "lection": 5131,
      "ilty": 5132,
      "chic": 5133,
      "moved": 5134,
      "cting": 5135,
      "sey": 5136,
      "seven": 5137,
      "rac": 5138,
      "demented": 5139,
      "ularly": 5140,
      "former": 5141,
      "wholes": 5142,
      "advant": 5143,
      "withers": 5144,
      "exagger": 5145,
      "poke": 5146,
      "pool": 5147,
      "oding": 5148,
      "tape": 5149,
      "usions": 5150,
      "prefer": 5151,
      "spend": 5152,
      "clue": 5153,
      "trapped": 5154,
      "cobbled": 5155,
      "opens": 5156,
      "discer": 5157,
      "blind": 5158,
      "ashedly": 5159,
      "tried": 5160,
      "obsc": 5161,
      "cumst": 5162,
      "ocity": 5163,
      "brooding": 5164,
      "handful": 5165,
      "easier": 5166,
      "vino": 5167,
      "trust": 5168,
      "denial": 5169,
      "german": 5170,
      "similar": 5171,
      "experienced": 5172,
      "satisfies": 5173,
      "portray": 5174,
      "masterfully": 5175,
      "sade": 5176,
      "saving": 5177,
      "exploiting": 5178,
      "teenage": 5179,
      "schmal": 5180,
      "sordid": 5181,
      "sorvino": 5182,
      "heroine": 5183,
      "frailty": 5184,
      "necessarily": 5185,
      "miracle": 5186,
      "substit": 5187,
      "comfortably": 5188,
      "stoop": 5189,
      "presentation": 5190,
      "jackie": 5191,
      "eventful": 5192,
      "critics": 5193,
      "nuanced": 5194,
      "limit": 5195,
      "remembered": 5196,
      "aimless": 5197,
      "observation": 5198,
      "concert": 5199,
      "britney": 5200,
      "rollicking": 5201,
      "chops": 5202,
      "resonance": 5203,
      "dishone": 5204,
      "enterprise": 5205,
      "vanity": 5206,
      "circumst": 5207,
      "acceptable": 5208,
      "continues": 5209,
      "appreciated": 5210,
      "inviting": 5211,
      "muddled": 5212,
      "hundre": 5213,
      "protagonists": 5214,
      "six": 5215,
      "ponderous": 5216,
      "vigor": 5217,
      "stretches": 5218,
      "pianist": 5219,
      "unabashedly": 5220,
      "marginal": 5221,
      "blockbuster": 5222,
      "lonel": 5223,
      "accurate": 5224,
      "smooth": 5225,
      "comparison": 5226,
      "daughter": 5227,
      "mythic": 5228,
      "narciss": 5229,
      "phenomenal": 5230,
      "squee": 5231,
      "implausible": 5232,
      "providing": 5233,
      "knack": 5234,
      "preposterous": 5235,
      "domestic": 5236,
      "advantage": 5237,
      "witherspoon": 5238,
      "schmalt": 5239,
      "11": 5240,
      "aise": 5241,
      "bust": 5242,
      "bath": 5243,
      "cus": 5244,
      "cup": 5245,
      "dum": 5246,
      "dling": 5247,
      "eky": 5248,
      "gall": 5249,
      "hong": 5250,
      "kung": 5251,
      "lull": 5252,
      "nour": 5253,
      "ningly": 5254,
      "rise": 5255,
      "sla": 5256,
      "tempt": 5257,
      "uber": 5258,
      "ufact": 5259,
      "wreck": 5260,
      "ina": 5261,
      "reple": 5262,
      "reaction": 5263,
      "reign": 5264,
      "reci": 5265,
      "resem": 5266,
      "arian": 5267,
      "lym": 5268,
      "toler": 5269,
      "omical": 5270,
      "chore": 5271,
      "defe": 5272,
      "ulate": 5273,
      "verty": 5274,
      "rog": 5275,
      "rival": 5276,
      "outside": 5277,
      "exuber": 5278,
      "poverty": 5279,
      "conserv": 5280,
      "dope": 5281,
      "artful": 5282,
      "eming": 5283,
      "manufact": 5284,
      "pretension": 5285,
      "bodi": 5286,
      "anybody": 5287,
      "page": 5288,
      "mushy": 5289,
      "opic": 5290,
      "prison": 5291,
      "surrender": 5292,
      "blu": 5293,
      "blat": 5294,
      "blank": 5295,
      "center": 5296,
      "downtown": 5297,
      "stylist": 5298,
      "righte": 5299,
      "enjoyment": 5300,
      "chew": 5301,
      "cheat": 5302,
      "cheek": 5303,
      "caught": 5304,
      "collapses": 5305,
      "scripts": 5306,
      "cares": 5307,
      "caper": 5308,
      "bread": 5309,
      "morally": 5310,
      "morality": 5311,
      "vincent": 5312,
      "appearing": 5313,
      "classics": 5314,
      "possess": 5315,
      "hypo": 5316,
      "hype": 5317,
      "ilibri": 5318,
      "wai": 5319,
      "deadpan": 5320,
      "profic": 5321,
      "equilibri": 5322,
      "calm": 5323,
      "gorgeously": 5324,
      "fancy": 5325,
      "tarant": 5326,
      "combined": 5327,
      "tasteful": 5328,
      "malaise": 5329,
      "elegance": 5330,
      "improvised": 5331,
      "marvelously": 5332,
      "snip": 5333,
      "remembering": 5334,
      "postcard": 5335,
      "absolute": 5336,
      "frustratingly": 5337,
      "recovery": 5338,
      "madden": 5339,
      "homo": 5340,
      "broadway": 5341,
      "determination": 5342,
      "primarily": 5343,
      "curiosity": 5344,
      "gratuit": 5345,
      "innovative": 5346,
      "evelyn": 5347,
      "incongru": 5348,
      "frozen": 5349,
      "surrounding": 5350,
      "dangerous": 5351,
      "radical": 5352,
      "stinker": 5353,
      "translation": 5354,
      "threat": 5355,
      "tepid": 5356,
      "obligatory": 5357,
      "russian": 5358,
      "searching": 5359,
      "academy": 5360,
      "fisted": 5361,
      "chabrol": 5362,
      "disposable": 5363,
      "replete": 5364,
      "recipe": 5365,
      "conservative": 5366,
      "manufactured": 5367,
      "equilibrium": 5368,
      "gratuitous": 5369,
      "incongruous": 5370,
      "30": 5371,
      "ais": 5372,
      "bull": 5373,
      "cate": 5374,
      "cow": 5375,
      "clow": 5376,
      "gal": 5377,
      "iful": 5378,
      "iation": 5379,
      "mex": 5380,
      "names": 5381,
      "swi": 5382,
      "ten": 5383,
      "tap": 5384,
      "xx": 5385,
      "thick": 5386,
      "incar": 5387,
      "inconsistent": 5388,
      "incorpor": 5389,
      "anig": 5390,
      "reas": 5391,
      "reject": 5392,
      "redem": 5393,
      "eningly": 5394,
      "enanig": 5395,
      "theon": 5396,
      "onna": 5397,
      "iso": 5398,
      "esther": 5399,
      "lying": 5400,
      "lex": 5401,
      "leby": 5402,
      "chas": 5403,
      "moves": 5404,
      "model": 5405,
      "ionary": 5406,
      "unsentimental": 5407,
      "forgiven": 5408,
      "noon": 5409,
      "ripe": 5410,
      "shenanig": 5411,
      "irish": 5412,
      "ironic": 5413,
      "conve": 5414,
      "condu": 5415,
      "conspi": 5416,
      "neigh": 5417,
      "door": 5418,
      "doses": 5419,
      "ateau": 5420,
      "hey": 5421,
      "charge": 5422,
      "proced": 5423,
      "wet": 5424,
      "west": 5425,
      "somebody": 5426,
      "notable": 5427,
      "isters": 5428,
      "clam": 5429,
      "ruined": 5430,
      "mear": 5431,
      "meets": 5432,
      "phys": 5433,
      "lower": 5434,
      "willis": 5435,
      "freak": 5436,
      "freeman": 5437,
      "range": 5438,
      "venture": 5439,
      "caring": 5440,
      "enjoyably": 5441,
      "lighting": 5442,
      "thrilling": 5443,
      "memories": 5444,
      "kidman": 5445,
      "bug": 5446,
      "plus": 5447,
      "dities": 5448,
      "generates": 5449,
      "classical": 5450,
      "elect": 5451,
      "element": 5452,
      "effectively": 5453,
      "musicians": 5454,
      "sensitivity": 5455,
      "impressed": 5456,
      "psyche": 5457,
      "harm": 5458,
      "burst": 5459,
      "destro": 5460,
      "blandness": 5461,
      "payoff": 5462,
      "stunts": 5463,
      "spectacularly": 5464,
      "groan": 5465,
      "pantheon": 5466,
      "pulling": 5467,
      "pulpy": 5468,
      "sucker": 5469,
      "truthful": 5470,
      "indivi": 5471,
      "observant": 5472,
      "winds": 5473,
      "machismo": 5474,
      "weakness": 5475,
      "savage": 5476,
      "ville": 5477,
      "ethnic": 5478,
      "madonna": 5479,
      "awkwardness": 5480,
      "pertinent": 5481,
      "languorous": 5482,
      "kah": 5483,
      "boredom": 5484,
      "sneaks": 5485,
      "torn": 5486,
      "bogs": 5487,
      "recording": 5488,
      "villains": 5489,
      "wonders": 5490,
      "excesses": 5491,
      "hideously": 5492,
      "transparent": 5493,
      "stiff": 5494,
      "sobering": 5495,
      "incessant": 5496,
      "impersonal": 5497,
      "evident": 5498,
      "reputation": 5499,
      "dawson": 5500,
      "misogyny": 5501,
      "articulate": 5502,
      "dawns": 5503,
      "cautionary": 5504,
      "loneliness": 5505,
      "clown": 5506,
      "mexic": 5507,
      "redemption": 5508,
      "shenanigans": 5509,
      "neighbor": 5510,
      "fits": 5511,
      "fum": 5512,
      "gile": 5513,
      "gimm": 5514,
      "hart": 5515,
      "hay": 5516,
      "jenn": 5517,
      "pas": 5518,
      "rust": 5519,
      "rerun": 5520,
      "sant": 5521,
      "table": 5522,
      "tour": 5523,
      "tesque": 5524,
      "vard": 5525,
      "vain": 5526,
      "vishing": 5527,
      "anch": 5528,
      "anthro": 5529,
      "rever": 5530,
      "redi": 5531,
      "enlight": 5532,
      "enchant": 5533,
      "thed": 5534,
      "ingredi": 5535,
      "stem": 5536,
      "static": 5537,
      "alia": 5538,
      "album": 5539,
      "arbit": 5540,
      "moody": 5541,
      "molest": 5542,
      "becoming": 5543,
      "imen": 5544,
      "radi": 5545,
      "ravishing": 5546,
      "ghai": 5547,
      "forth": 5548,
      "lized": 5549,
      "whiny": 5550,
      "composition": 5551,
      "ader": 5552,
      "rives": 5553,
      "shines": 5554,
      "outing": 5555,
      "terior": 5556,
      "consp": 5557,
      "urally": 5558,
      "pretensions": 5559,
      "wearing": 5560,
      "notes": 5561,
      "accent": 5562,
      "acclaim": 5563,
      "tract": 5564,
      "guid": 5565,
      "phones": 5566,
      "insign": 5567,
      "grin": 5568,
      "system": 5569,
      "underbelly": 5570,
      "stylistic": 5571,
      "stylized": 5572,
      "howard": 5573,
      "longing": 5574,
      "carol": 5575,
      "carvey": 5576,
      "steal": 5577,
      "misfire": 5578,
      "dahmer": 5579,
      "formal": 5580,
      "fienn": 5581,
      "vintage": 5582,
      "bracing": 5583,
      "elev": 5584,
      "wanted": 5585,
      "graphical": 5586,
      "expectations": 5587,
      "parad": 5588,
      "emptiness": 5589,
      "darker": 5590,
      "lasting": 5591,
      "cases": 5592,
      "sedu": 5593,
      "impressions": 5594,
      "solidly": 5595,
      "lined": 5596,
      "fragile": 5597,
      "101": 5598,
      "norm": 5599,
      "positively": 5600,
      "naturally": 5601,
      "pedest": 5602,
      "exceptionally": 5603,
      "catches": 5604,
      "credibility": 5605,
      "grotesque": 5606,
      "panache": 5607,
      "pungent": 5608,
      "flashes": 5609,
      "assuming": 5610,
      "admit": 5611,
      "busy": 5612,
      "demons": 5613,
      "godard": 5614,
      "fills": 5615,
      "damaged": 5616,
      "jerking": 5617,
      "textbook": 5618,
      "alienation": 5619,
      "demonstrates": 5620,
      "torture": 5621,
      "suspecting": 5622,
      "properly": 5623,
      "sacrifice": 5624,
      "idiotic": 5625,
      "crimes": 5626,
      "immediate": 5627,
      "loosely": 5628,
      "families": 5629,
      "pathos": 5630,
      "melancho": 5631,
      "piano": 5632,
      "baffling": 5633,
      "hibit": 5634,
      "eerie": 5635,
      "adequately": 5636,
      "understated": 5637,
      "wrapped": 5638,
      "feminist": 5639,
      "hidden": 5640,
      "shanghai": 5641,
      "enveloping": 5642,
      "tarantino": 5643,
      "jennifer": 5644,
      "santa": 5645,
      "arbitr": 5646,
      "conspic": 5647,
      "insignific": 5648,
      "fiennes": 5649,
      "95": 5650,
      "baked": 5651,
      "dime": 5652,
      "fable": 5653,
      "focused": 5654,
      "gically": 5655,
      "iel": 5656,
      "ls": 5657,
      "lur": 5658,
      "mut": 5659,
      "pnot": 5660,
      "pry": 5661,
      "parent": 5662,
      "send": 5663,
      "sister": 5664,
      "sisters": 5665,
      "tat": 5666,
      "tuck": 5667,
      "ura": 5668,
      "wone": 5669,
      "wins": 5670,
      "wander": 5671,
      "zak": 5672,
      "incomprehensible": 5673,
      "reef": 5674,
      "attack": 5675,
      "stag": 5676,
      "stately": 5677,
      "status": 5678,
      "isra": 5679,
      "esse": 5680,
      "arter": 5681,
      "arnold": 5682,
      "leag": 5683,
      "leash": 5684,
      "asper": 5685,
      "iles": 5686,
      "eliza": 5687,
      "uninteresting": 5688,
      "uncertain": 5689,
      "untalented": 5690,
      "uncomfortable": 5691,
      "imer": 5692,
      "rah": 5693,
      "raised": 5694,
      "dear": 5695,
      "defi": 5696,
      "ables": 5697,
      "abuse": 5698,
      "libert": 5699,
      "rohmer": 5700,
      "susan": 5701,
      "nose": 5702,
      "adding": 5703,
      "essions": 5704,
      "filming": 5705,
      "shri": 5706,
      "expo": 5707,
      "exasper": 5708,
      "moviegoing": 5709,
      "concess": 5710,
      "condit": 5711,
      "umble": 5712,
      "dozen": 5713,
      "artsy": 5714,
      "ckhe": 5715,
      "antwone": 5716,
      "quarter": 5717,
      "prep": 5718,
      "rub": 5719,
      "ptic": 5720,
      "lessons": 5721,
      "tragically": 5722,
      "gues": 5723,
      "phil": 5724,
      "optim": 5725,
      "wned": 5726,
      "justify": 5727,
      "compell": 5728,
      "intermin": 5729,
      "subvers": 5730,
      "dud": 5731,
      "seemingly": 5732,
      "turing": 5733,
      "angel": 5734,
      "characteristic": 5735,
      "pointed": 5736,
      "awfully": 5737,
      "holm": 5738,
      "lightweight": 5739,
      "choose": 5740,
      "thrillers": 5741,
      "higher": 5742,
      "capturing": 5743,
      "kinda": 5744,
      "gib": 5745,
      "studi": 5746,
      "brave": 5747,
      "happened": 5748,
      "clothes": 5749,
      "sensibilities": 5750,
      "failing": 5751,
      "hypnot": 5752,
      "waves": 5753,
      "heroes": 5754,
      "artistry": 5755,
      "droll": 5756,
      "growth": 5757,
      "pays": 5758,
      "shockingly": 5759,
      "boyant": 5760,
      "momentum": 5761,
      "meaningless": 5762,
      "flowing": 5763,
      "numbing": 5764,
      "swinging": 5765,
      "costly": 5766,
      "struggled": 5767,
      "glorified": 5768,
      "medium": 5769,
      "metaph": 5770,
      "wondrous": 5771,
      "judgment": 5772,
      "liberating": 5773,
      "bruckhe": 5774,
      "massive": 5775,
      "objective": 5776,
      "adequate": 5777,
      "thousands": 5778,
      "climactic": 5779,
      "idiots": 5780,
      "korean": 5781,
      "contrivances": 5782,
      "contribution": 5783,
      "organic": 5784,
      "insistent": 5785,
      "authority": 5786,
      "flamboyant": 5787,
      "flourishes": 5788,
      "contradictory": 5789,
      "illuminating": 5790,
      "claustrophobic": 5791,
      "wholesome": 5792,
      "exaggerated": 5793,
      "pokemon": 5794,
      "snipes": 5795,
      "israel": 5796,
      "league": 5797,
      "elizabe": 5798,
      "concession": 5799,
      "subversive": 5800,
      "bruckheimer": 5801,
      "boun": 5802,
      "dent": 5803,
      "dance": 5804,
      "econ": 5805,
      "eem": 5806,
      "fman": 5807,
      "fizz": 5808,
      "gli": 5809,
      "gam": 5810,
      "ggles": 5811,
      "hed": 5812,
      "kine": 5813,
      "kau": 5814,
      "kwan": 5815,
      "lis": 5816,
      "latter": 5817,
      "och": 5818,
      "opa": 5819,
      "vating": 5820,
      "wk": 5821,
      "zip": 5822,
      "informat": 5823,
      "rela": 5824,
      "reviews": 5825,
      "endi": 5826,
      "onistic": 5827,
      "orial": 5828,
      "arrive": 5829,
      "tomor": 5830,
      "ication": 5831,
      "chord": 5832,
      "champ": 5833,
      "elic": 5834,
      "elbow": 5835,
      "mode": 5836,
      "unner": 5837,
      "unconventional": 5838,
      "unsympathetic": 5839,
      "unintentionally": 5840,
      "los": 5841,
      "coma": 5842,
      "nobody": 5843,
      "rian": 5844,
      "shrill": 5845,
      "kets": 5846,
      "outtakes": 5847,
      "pokes": 5848,
      "tered": 5849,
      "convers": 5850,
      "contains": 5851,
      "pear": 5852,
      "pepper": 5853,
      "netic": 5854,
      "scor": 5855,
      "quer": 5856,
      "ills": 5857,
      "hear": 5858,
      "ellen": 5859,
      "proportions": 5860,
      "inee": 5861,
      "upper": 5862,
      "ourselves": 5863,
      "esteem": 5864,
      "creations": 5865,
      "directs": 5866,
      "jointed": 5867,
      "matters": 5868,
      "matinee": 5869,
      "disjointed": 5870,
      "ensed": 5871,
      "wattage": 5872,
      "otion": 5873,
      "subplots": 5874,
      "player": 5875,
      "entertained": 5876,
      "news": 5877,
      "rightly": 5878,
      "plotless": 5879,
      "humane": 5880,
      "awak": 5881,
      "cumul": 5882,
      "cumbers": 5883,
      "versity": 5884,
      "monsters": 5885,
      "beings": 5886,
      "showing": 5887,
      "horribly": 5888,
      "glaring": 5889,
      "documentaries": 5890,
      "brother": 5891,
      "sinks": 5892,
      "generate": 5893,
      "distant": 5894,
      "corner": 5895,
      "france": 5896,
      "tediously": 5897,
      "simone": 5898,
      "closer": 5899,
      "childlike": 5900,
      "sensibility": 5901,
      "casual": 5902,
      "hilarity": 5903,
      "vali": 5904,
      "clichéd": 5905,
      "leading": 5906,
      "believing": 5907,
      "disappointment": 5908,
      "innocent": 5909,
      "gracefully": 5910,
      "recommended": 5911,
      "double": 5912,
      "squanders": 5913,
      "scores": 5914,
      "repeated": 5915,
      "conceits": 5916,
      "purely": 5917,
      "recommendation": 5918,
      "crib": 5919,
      "virtu": 5920,
      "million": 5921,
      "paints": 5922,
      "incredible": 5923,
      "awkwardly": 5924,
      "insultingly": 5925,
      "consciousness": 5926,
      "pitfalls": 5927,
      "accident": 5928,
      "predecessors": 5929,
      "survival": 5930,
      "building": 5931,
      "biographical": 5932,
      "europe": 5933,
      "sacrificing": 5934,
      "victims": 5935,
      "bruce": 5936,
      "bombastic": 5937,
      "unabashed": 5938,
      "thousand": 5939,
      "lunacy": 5940,
      "pompeo": 5941,
      "adrenaline": 5942,
      "audacious": 5943,
      "excruciating": 5944,
      "perceptive": 5945,
      "separate": 5946,
      "woefully": 5947,
      "argentine": 5948,
      "ralph": 5949,
      "obscure": 5950,
      "narcissism": 5951,
      "blatant": 5952,
      "conveying": 5953,
      "dentist": 5954,
      "hedonistic": 5955,
      "kaufman": 5956,
      "opaque": 5957,
      "informative": 5958,
      "tomorrow": 5959,
      "unnerving": 5960,
      "ains": 5961,
      "bart": 5962,
      "bby": 5963,
      "ccid": 5964,
      "eight": 5965,
      "egger": 5966,
      "fli": 5967,
      "fell": 5968,
      "ffa": 5969,
      "harr": 5970,
      "iency": 5971,
      "jell": 5972,
      "jord": 5973,
      "lam": 5974,
      "lantic": 5975,
      "lane": 5976,
      "mour": 5977,
      "nin": 5978,
      "nut": 5979,
      "nif": 5980,
      "oia": 5981,
      "pable": 5982,
      "plight": 5983,
      "pier": 5984,
      "sway": 5985,
      "soft": 5986,
      "swan": 5987,
      "ths": 5988,
      "infect": 5989,
      "innu": 5990,
      "indifference": 5991,
      "insurance": 5992,
      "anne": 5993,
      "rese": 5994,
      "endo": 5995,
      "enet": 5996,
      "atlantic": 5997,
      "stab": 5998,
      "alt": 5999,
      "alab": 6000,
      "leaky": 6001,
      "omnia": 6002,
      "ella": 6003,
      "semi": 6004,
      "section": 6005,
      "unrelent": 6006,
      "unrewarding": 6007,
      "raise": 6008,
      "deprec": 6009,
      "ultra": 6010,
      "suits": 6011,
      "compo": 6012,
      "adv": 6013,
      "aded": 6014,
      "addle": 6015,
      "shine": 6016,
      "feathers": 6017,
      "exposed": 6018,
      "exterior": 6019,
      "convol": 6020,
      "confront": 6021,
      "construction": 6022,
      "neider": 6023,
      "alluring": 6024,
      "anton": 6025,
      "spar": 6026,
      "wester": 6027,
      "weigh": 6028,
      "webs": 6029,
      "ints": 6030,
      "astly": 6031,
      "upbeat": 6032,
      "goods": 6033,
      "bleak": 6034,
      "measured": 6035,
      "insomnia": 6036,
      "disquiet": 6037,
      "ttes": 6038,
      "blame": 6039,
      "berry": 6040,
      "specul": 6041,
      "speaking": 6042,
      "grasp": 6043,
      "impenet": 6044,
      "warzen": 6045,
      "smash": 6046,
      "rental": 6047,
      "greater": 6048,
      "cratic": 6049,
      "avary": 6050,
      "porno": 6051,
      "cuteness": 6052,
      "farc": 6053,
      "cade": 6054,
      "glu": 6055,
      "brook": 6056,
      "mike": 6057,
      "flaccid": 6058,
      "poll": 6059,
      "corrupt": 6060,
      "fron": 6061,
      "leather": 6062,
      "animals": 6063,
      "produce": 6064,
      "parade": 6065,
      "wallop": 6066,
      "darkly": 6067,
      "simplic": 6068,
      "barney": 6069,
      "hyper": 6070,
      "explosion": 6071,
      "schneider": 6072,
      "schwarzen": 6073,
      "sorry": 6074,
      "refuses": 6075,
      "damon": 6076,
      "uttering": 6077,
      "solutions": 6078,
      "drops": 6079,
      "cuit": 6080,
      "definit": 6081,
      "disappointingly": 6082,
      "stoppers": 6083,
      "friendly": 6084,
      "existent": 6085,
      "sustains": 6086,
      "legal": 6087,
      "combines": 6088,
      "eventual": 6089,
      "includes": 6090,
      "pulp": 6091,
      "revelation": 6092,
      "numer": 6093,
      "precision": 6094,
      "wilder": 6095,
      "fearlessness": 6096,
      "glorious": 6097,
      "avoids": 6098,
      "mistak": 6099,
      "texture": 6100,
      "curious": 6101,
      "photographed": 6102,
      "jazzy": 6103,
      "significance": 6104,
      "bridge": 6105,
      "disguised": 6106,
      "idealism": 6107,
      "trashy": 6108,
      "jumbo": 6109,
      "builds": 6110,
      "secretary": 6111,
      "china": 6112,
      "featuring": 6113,
      "rambling": 6114,
      "scratching": 6115,
      "defies": 6116,
      "constantly": 6117,
      "succumbs": 6118,
      "dares": 6119,
      "juliet": 6120,
      "department": 6121,
      "improvement": 6122,
      "undercuts": 6123,
      "fabricated": 6124,
      "glossy": 6125,
      "evokes": 6126,
      "assassin": 6127,
      "paranoia": 6128,
      "qualities": 6129,
      "clockstoppers": 6130,
      "smack": 6131,
      "employ": 6132,
      "assembled": 6133,
      "shoddy": 6134,
      "confidence": 6135,
      "amazingly": 6136,
      "focus": 6137,
      "taylor": 6138,
      "minimalist": 6139,
      "circumstances": 6140,
      "defeated": 6141,
      "category": 6142,
      "conspiracy": 6143,
      "kahlo": 6144,
      "pryor": 6145,
      "jordan": 6146,
      "nifty": 6147,
      "innuendo": 6148,
      "resemble": 6149,
      "alabama": 6150,
      "deprecating": 6151,
      "website": 6152,
      "impenetrable": 6153,
      "simplicity": 6154,
      "schwarzenegger": 6155,
      "18": 6156,
      "22": 6157,
      "bump": 6158,
      "dd": 6159,
      "dashing": 6160,
      "fitting": 6161,
      "gage": 6162,
      "hatt": 6163,
      "iver": 6164,
      "jan": 6165,
      "lom": 6166,
      "lord": 6167,
      "nur": 6168,
      "ology": 6169,
      "pion": 6170,
      "pump": 6171,
      "pants": 6172,
      "sky": 6173,
      "silli": 6174,
      "sund": 6175,
      "switch": 6176,
      "tense": 6177,
      "tang": 6178,
      "uge": 6179,
      "uated": 6180,
      "vall": 6181,
      "vict": 6182,
      "ws": 6183,
      "zel": 6184,
      "iner": 6185,
      "anci": 6186,
      "erile": 6187,
      "recall": 6188,
      "revision": 6189,
      "encompass": 6190,
      "onous": 6191,
      "stur": 6192,
      "stitch": 6193,
      "orter": 6194,
      "icable": 6195,
      "assum": 6196,
      "associ": 6197,
      "chel": 6198,
      "eling": 6199,
      "eled": 6200,
      "ctions": 6201,
      "uncomfortably": 6202,
      "unassuming": 6203,
      "destructive": 6204,
      "loween": 6205,
      "loyal": 6206,
      "lobby": 6207,
      "abstra": 6208,
      "ghtheart": 6209,
      "libr": 6210,
      "lightheart": 6211,
      "versy": 6212,
      "diverse": 6213,
      "fet": 6214,
      "consequences": 6215,
      "congrat": 6216,
      "dose": 6217,
      "goals": 6218,
      "manhatt": 6219,
      "romp": 6220,
      "urity": 6221,
      "spif": 6222,
      "split": 6223,
      "heated": 6224,
      "notorious": 6225,
      "evans": 6226,
      "teens": 6227,
      "fathers": 6228,
      "maturity": 6229,
      "comedian": 6230,
      "dramas": 6231,
      "disregard": 6232,
      "ears": 6233,
      "grey": 6234,
      "brat": 6235,
      "bris": 6236,
      "sermon": 6237,
      "desired": 6238,
      "gravity": 6239,
      "spears": 6240,
      "makeup": 6241,
      "screening": 6242,
      "duvall": 6243,
      "undermin": 6244,
      "styles": 6245,
      "casts": 6246,
      "turf": 6247,
      "powerfully": 6248,
      "worldly": 6249,
      "misanthro": 6250,
      "shoulders": 6251,
      "media": 6252,
      "meditative": 6253,
      "nerds": 6254,
      "anticip": 6255,
      "surprised": 6256,
      "glum": 6257,
      "davis": 6258,
      "halloween": 6259,
      "foreign": 6260,
      "generated": 6261,
      "winners": 6262,
      "consid": 6263,
      "wallet": 6264,
      "richard": 6265,
      "satisfyingly": 6266,
      "closing": 6267,
      "facet": 6268,
      "slim": 6269,
      "quirk": 6270,
      "exploitive": 6271,
      "frida": 6272,
      "promised": 6273,
      "promises": 6274,
      "flatter": 6275,
      "puerile": 6276,
      "profane": 6277,
      "sons": 6278,
      "saying": 6279,
      "nonjudgment": 6280,
      "harvard": 6281,
      "refuge": 6282,
      "suffoc": 6283,
      "italic": 6284,
      "projects": 6285,
      "psychologically": 6286,
      "brilliance": 6287,
      "techni": 6288,
      "extraordin": 6289,
      "sandra": 6290,
      "20th": 6291,
      "slightest": 6292,
      "deaths": 6293,
      "deniro": 6294,
      "ristic": 6295,
      "nuance": 6296,
      "ferr": 6297,
      "conventions": 6298,
      "pulse": 6299,
      "sucked": 6300,
      "juicy": 6301,
      "aimed": 6302,
      "literate": 6303,
      "gifts": 6304,
      "salv": 6305,
      "savor": 6306,
      "palma": 6307,
      "brightly": 6308,
      "gave": 6309,
      "mouthed": 6310,
      "jerry": 6311,
      "robust": 6312,
      "deceptions": 6313,
      "innovation": 6314,
      "jumps": 6315,
      "willingness": 6316,
      "baggage": 6317,
      "anderson": 6318,
      "obsession": 6319,
      "liberation": 6320,
      "tosses": 6321,
      "professionals": 6322,
      "emphasis": 6323,
      "transforms": 6324,
      "amiable": 6325,
      "jaglom": 6326,
      "boasts": 6327,
      "populated": 6328,
      "nicholas": 6329,
      "foolish": 6330,
      "costume": 6331,
      "chuckle": 6332,
      "monotonous": 6333,
      "decidedly": 6334,
      "huston": 6335,
      "nostalgic": 6336,
      "episodes": 6337,
      "hitchcockian": 6338,
      "clinic": 6339,
      "swooping": 6340,
      "gosling": 6341,
      "controversy": 6342,
      "vulnerable": 6343,
      "guaranteed": 6344,
      "drunken": 6345,
      "fifteen": 6346,
      "limitations": 6347,
      "dishonest": 6348,
      "hundred": 6349,
      "radiant": 6350,
      "paradiso": 6351,
      "compellingly": 6352,
      "interminable": 6353,
      "brooklyn": 6354,
      "sundance": 6355,
      "abstract": 6356,
      "lighthearted": 6357,
      "manhattan": 6358,
      "nonjudgmental": 6359,
      "refugees": 6360,
      "extraordinarily": 6361,
      "14": 6362,
      "21": 6363,
      "3d": 6364,
      "ail": 6365,
      "bin": 6366,
      "bind": 6367,
      "bile": 6368,
      "bted": 6369,
      "cite": 6370,
      "civ": 6371,
      "hup": 6372,
      "ius": 6373,
      "kur": 6374,
      "kicks": 6375,
      "lof": 6376,
      "lone": 6377,
      "pes": 6378,
      "rion": 6379,
      "ratt": 6380,
      "tel": 6381,
      "tren": 6382,
      "tier": 6383,
      "yid": 6384,
      "thy": 6385,
      "thday": 6386,
      "inian": 6387,
      "rein": 6388,
      "recite": 6389,
      "thematically": 6390,
      "attal": 6391,
      "ators": 6392,
      "ongest": 6393,
      "andal": 6394,
      "esy": 6395,
      "oubted": 6396,
      "asian": 6397,
      "assurance": 6398,
      "unit": 6399,
      "unless": 6400,
      "uneasy": 6401,
      "unforgettable": 6402,
      "unmention": 6403,
      "unapo": 6404,
      "unimaginable": 6405,
      "uneventful": 6406,
      "unsuspecting": 6407,
      "immature": 6408,
      "deals": 6409,
      "rot": 6410,
      "whale": 6411,
      "amor": 6412,
      "actory": 6413,
      "laid": 6414,
      "feed": 6415,
      "outs": 6416,
      "irrelevant": 6417,
      "exha": 6418,
      "cond": 6419,
      "tax": 6420,
      "manhood": 6421,
      "preced": 6422,
      "agree": 6423,
      "prote": 6424,
      "timed": 6425,
      "tsai": 6426,
      "etc": 6427,
      "etrating": 6428,
      "pton": 6429,
      "lesser": 6430,
      "teeming": 6431,
      "directly": 6432,
      "tooth": 6433,
      "pax": 6434,
      "phone": 6435,
      "offend": 6436,
      "lows": 6437,
      "overbearing": 6438,
      "overexposed": 6439,
      "prime": 6440,
      "discor": 6441,
      "bral": 6442,
      "visation": 6443,
      "blues": 6444,
      "izo": 6445,
      "afer": 6446,
      "grating": 6447,
      "ackles": 6448,
      "triangle": 6449,
      "joyless": 6450,
      "daytime": 6451,
      "angry": 6452,
      "crummy": 6453,
      "answer": 6454,
      "mono": 6455,
      "monument": 6456,
      "strongest": 6457,
      "scenic": 6458,
      "steve": 6459,
      "histrion": 6460,
      "morbid": 6461,
      "morvern": 6462,
      "sinister": 6463,
      "flagr": 6464,
      "cultures": 6465,
      "fined": 6466,
      "brav": 6467,
      "energ": 6468,
      "senses": 6469,
      "strained": 6470,
      "failed": 6471,
      "wake": 6472,
      "ballistic": 6473,
      "appeals": 6474,
      "silver": 6475,
      "strongly": 6476,
      "narratively": 6477,
      "schizo": 6478,
      "nonexistent": 6479,
      "student": 6480,
      "depra": 6481,
      "hilariously": 6482,
      "signpost": 6483,
      "hoped": 6484,
      "undoubted": 6485,
      "100": 6486,
      "inspires": 6487,
      "driver": 6488,
      "legacy": 6489,
      "secondhand": 6490,
      "ferocity": 6491,
      "punk": 6492,
      "punching": 6493,
      "celebrated": 6494,
      "aliens": 6495,
      "improvisation": 6496,
      "rolling": 6497,
      "bias": 6498,
      "follows": 6499,
      "hammy": 6500,
      "infuses": 6501,
      "inescapable": 6502,
      "intensely": 6503,
      "contempl": 6504,
      "devote": 6505,
      "named": 6506,
      "aspires": 6507,
      "cerebral": 6508,
      "immers": 6509,
      "salton": 6510,
      "annoy": 6511,
      "procession": 6512,
      "embracing": 6513,
      "throwing": 6514,
      "dazzle": 6515,
      "loaded": 6516,
      "continuity": 6517,
      "achieving": 6518,
      "awards": 6519,
      "muddle": 6520,
      "traditions": 6521,
      "pushes": 6522,
      "demonstrate": 6523,
      "candid": 6524,
      "judd": 6525,
      "idealistic": 6526,
      "suggests": 6527,
      "specimen": 6528,
      "sleepless": 6529,
      "profoundly": 6530,
      "obsessive": 6531,
      "recognize": 6532,
      "strictly": 6533,
      "reduced": 6534,
      "pilot": 6535,
      "vails": 6536,
      "penetrating": 6537,
      "dragonfly": 6538,
      "remotely": 6539,
      "idiosyn": 6540,
      "korea": 6541,
      "dynamic": 6542,
      "heights": 6543,
      "participants": 6544,
      "spontaneity": 6545,
      "environmental": 6546,
      "birthday": 6547,
      "alleged": 6548,
      "saga": 6549,
      "renowned": 6550,
      "naught": 6551,
      "condescending": 6552,
      "righteousness": 6553,
      "reassur": 6554,
      "rejected": 6555,
      "neighborhood": 6556,
      "losers": 6557,
      "huppert": 6558,
      "lofty": 6559,
      "rattling": 6560,
      "yiddish": 6561,
      "unapolo": 6562,
      "exhaust": 6563,
      "discord": 6564,
      "undoubtedly": 6565,
      "idiosyncratic": 6566,
      "300": 6567,
      "aust": 6568,
      "bil": 6569,
      "bard": 6570,
      "bible": 6571,
      "cof": 6572,
      "cod": 6573,
      "dong": 6574,
      "echo": 6575,
      "fy": 6576,
      "gasm": 6577,
      "jam": 6578,
      "jinsky": 6579,
      "ko": 6580,
      "kick": 6581,
      "kitch": 6582,
      "lind": 6583,
      "lision": 6584,
      "mum": 6585,
      "mish": 6586,
      "mund": 6587,
      "nary": 6588,
      "oce": 6589,
      "pride": 6590,
      "rou": 6591,
      "sam": 6592,
      "slea": 6593,
      "sabo": 6594,
      "sword": 6595,
      "uel": 6596,
      "uary": 6597,
      "wishing": 6598,
      "yu": 6599,
      "zany": 6600,
      "thom": 6601,
      "thod": 6602,
      "thony": 6603,
      "inous": 6604,
      "infant": 6605,
      "insuffer": 6606,
      "anal": 6607,
      "anthony": 6608,
      "erk": 6609,
      "thetically": 6610,
      "stones": 6611,
      "stagger": 6612,
      "orchest": 6613,
      "ilk": 6614,
      "entry": 6615,
      "betra": 6616,
      "segment": 6617,
      "undone": 6618,
      "vein": 6619,
      "detached": 6620,
      "decade": 6621,
      "loath": 6622,
      "vile": 6623,
      "composed": 6624,
      "addict": 6625,
      "address": 6626,
      "laud": 6627,
      "geon": 6628,
      "gear": 6629,
      "outer": 6630,
      "explain": 6631,
      "poo": 6632,
      "contest": 6633,
      "peak": 6634,
      "peek": 6635,
      "scroo": 6636,
      "govern": 6637,
      "worn": 6638,
      "mann": 6639,
      "pretend": 6640,
      "hewitt": 6641,
      "propo": 6642,
      "progra": 6643,
      "usters": 6644,
      "ruff": 6645,
      "ette": 6646,
      "trap": 6647,
      "traffic": 6648,
      "coc": 6649,
      "cooked": 6650,
      "creen": 6651,
      "took": 6652,
      "favors": 6653,
      "meander": 6654,
      "joel": 6655,
      "opening": 6656,
      "ictions": 6657,
      "overcooked": 6658,
      "canad": 6659,
      "icky": 6660,
      "brim": 6661,
      "tales": 6662,
      "frequent": 6663,
      "interpre": 6664,
      "screw": 6665,
      "realizing": 6666,
      "genres": 6667,
      "ization": 6668,
      "serving": 6669,
      "orton": 6670,
      "lifestyle": 6671,
      "subtitles": 6672,
      "impart": 6673,
      "duck": 6674,
      "warfare": 6675,
      "tripe": 6676,
      "jewish": 6677,
      "greatness": 6678,
      "obsta": 6679,
      "pleasantly": 6680,
      "laughed": 6681,
      "crity": 6682,
      "choo": 6683,
      "monstr": 6684,
      "columb": 6685,
      "collision": 6686,
      "whenever": 6687,
      "sweat": 6688,
      "highlight": 6689,
      "miscalcul": 6690,
      "misguid": 6691,
      "medical": 6692,
      "dreck": 6693,
      "caine": 6694,
      "excited": 6695,
      "pluck": 6696,
      "cylind": 6697,
      "gia": 6698,
      "moronic": 6699,
      "trim": 6700,
      "nijinsky": 6701,
      "borders": 6702,
      "didactic": 6703,
      "walt": 6704,
      "heady": 6705,
      "supernatural": 6706,
      "listen": 6707,
      "hyster": 6708,
      "narrator": 6709,
      "explores": 6710,
      "placement": 6711,
      "crudup": 6712,
      "allowed": 6713,
      "callar": 6714,
      "intelligently": 6715,
      "puff": 6716,
      "helped": 6717,
      "schlock": 6718,
      "effortlessly": 6719,
      "193": 6720,
      "basis": 6721,
      "damning": 6722,
      "artistes": 6723,
      "unders": 6724,
      "inventiveness": 6725,
      "patient": 6726,
      "subtlest": 6727,
      "definitive": 6728,
      "conceptual": 6729,
      "chiller": 6730,
      "attempted": 6731,
      "empire": 6732,
      "fourth": 6733,
      "sleeve": 6734,
      "inclination": 6735,
      "weighty": 6736,
      "alike": 6737,
      "scoo": 6738,
      "manipulation": 6739,
      "flower": 6740,
      "hammer": 6741,
      "sustained": 6742,
      "mediocrity": 6743,
      "wilson": 6744,
      "gift": 6745,
      "yawn": 6746,
      "faces": 6747,
      "struggling": 6748,
      "superficiality": 6749,
      "convictions": 6750,
      "integrating": 6751,
      "tackling": 6752,
      "flop": 6753,
      "randall": 6754,
      "compromise": 6755,
      "distinguish": 6756,
      "jumble": 6757,
      "dressed": 6758,
      "boldly": 6759,
      "picked": 6760,
      "hurt": 6761,
      "wisdom": 6762,
      "drowned": 6763,
      "induced": 6764,
      "inducing": 6765,
      "henry": 6766,
      "practically": 6767,
      "thirty": 6768,
      "blockbusters": 6769,
      "rink": 6770,
      "aggressively": 6771,
      "squarely": 6772,
      "collectively": 6773,
      "stimul": 6774,
      "maintaining": 6775,
      "multiple": 6776,
      "boasting": 6777,
      "nicholson": 6778,
      "warrior": 6779,
      "warriors": 6780,
      "disciplined": 6781,
      "crafts": 6782,
      "roberto": 6783,
      "twink": 6784,
      "miserable": 6785,
      "chicago": 6786,
      "substitute": 6787,
      "breadth": 6788,
      "procedural": 6789,
      "physical": 6790,
      "harmless": 6791,
      "hartley": 6792,
      "ingredients": 6793,
      "normally": 6794,
      "arbitrary": 6795,
      "sisterhood": 6796,
      "philip": 6797,
      "bilked": 6798,
      "coffee": 6799,
      "kitchen": 6800,
      "ocean": 6801,
      "rouge": 6802,
      "loathsome": 6803,
      "laudable": 6804,
      "scrooge": 6805,
      "program": 6806,
      "obstacles": 6807,
      "monstrous": 6808,
      "misguided": 6809,
      "cylinders": 6810,
      "4ever": 6811,
      "baby": 6812,
      "cli": 6813,
      "cers": 6814,
      "caf": 6815,
      "cgi": 6816,
      "dur": 6817,
      "dorm": 6818,
      "kne": 6819,
      "lly": 6820,
      "lark": 6821,
      "mich": 6822,
      "plym": 6823,
      "ré": 6824,
      "rously": 6825,
      "sme": 6826,
      "sie": 6827,
      "squir": 6828,
      "sized": 6829,
      "té": 6830,
      "vas": 6831,
      "vable": 6832,
      "wanders": 6833,
      "xplo": 6834,
      "inhal": 6835,
      "infat": 6836,
      "inquis": 6837,
      "inoffensive": 6838,
      "invaluable": 6839,
      "retal": 6840,
      "ensu": 6841,
      "ensure": 6842,
      "theories": 6843,
      "onious": 6844,
      "stall": 6845,
      "steless": 6846,
      "ald": 6847,
      "alleg": 6848,
      "isse": 6849,
      "oufla": 6850,
      "edom": 6851,
      "edges": 6852,
      "ica": 6853,
      "leep": 6854,
      "lewis": 6855,
      "asph": 6856,
      "asleep": 6857,
      "chri": 6858,
      "molly": 6859,
      "seams": 6860,
      "unlimited": 6861,
      "veil": 6862,
      "rams": 6863,
      "lola": 6864,
      "loop": 6865,
      "logue": 6866,
      "abroad": 6867,
      "maid": 6868,
      "suasive": 6869,
      "advert": 6870,
      "shed": 6871,
      "oling": 6872,
      "persuasive": 6873,
      "net": 6874,
      "neath": 6875,
      "solem": 6876,
      "gore": 6877,
      "goose": 6878,
      "qua": 6879,
      "tasteless": 6880,
      "butter": 6881,
      "prejud": 6882,
      "spac": 6883,
      "sprightly": 6884,
      "idan": 6885,
      "ides": 6886,
      "proof": 6887,
      "astute": 6888,
      "astron": 6889,
      "fundam": 6890,
      "likeable": 6891,
      "upd": 6892,
      "boiler": 6893,
      "ittedly": 6894,
      "storylines": 6895,
      "trace": 6896,
      "humans": 6897,
      "megap": 6898,
      "phon": 6899,
      "mugging": 6900,
      "iever": 6901,
      "earn": 6902,
      "canvas": 6903,
      "brits": 6904,
      "brash": 6905,
      "compul": 6906,
      "freedom": 6907,
      "otically": 6908,
      "lifetime": 6909,
      "workshop": 6910,
      "gray": 6911,
      "grim": 6912,
      "grate": 6913,
      "entertainingly": 6914,
      "underneath": 6915,
      "renders": 6916,
      "auteu": 6917,
      "turgid": 6918,
      "rowling": 6919,
      "angels": 6920,
      "enjoying": 6921,
      "humanly": 6922,
      "humanistic": 6923,
      "ighter": 6924,
      "atters": 6925,
      "oclast": 6926,
      "igned": 6927,
      "thinly": 6928,
      "athle": 6929,
      "athlet": 6930,
      "porn": 6931,
      "porrid": 6932,
      "swear": 6933,
      "stealing": 6934,
      "showcases": 6935,
      "drew": 6936,
      "excels": 6937,
      "flailing": 6938,
      "dialog": 6939,
      "generosity": 6940,
      "border": 6941,
      "passing": 6942,
      "predictability": 6943,
      "headed": 6944,
      "superbly": 6945,
      "universe": 6946,
      "operative": 6947,
      "successor": 6948,
      "subtext": 6949,
      "banter": 6950,
      "zeal": 6951,
      "complexities": 6952,
      "believability": 6953,
      "drooling": 6954,
      "culine": 6955,
      "spook": 6956,
      "elsewhere": 6957,
      "drivel": 6958,
      "restroom": 6959,
      "spike": 6960,
      "stopher": 6961,
      "masculine": 6962,
      "skillfully": 6963,
      "stooping": 6964,
      "reliable": 6965,
      "blaxplo": 6966,
      "rewarded": 6967,
      "uniquely": 6968,
      "daniel": 6969,
      "panic": 6970,
      "biopic": 6971,
      "sucks": 6972,
      "flashbacks": 6973,
      "aimlessly": 6974,
      "sloppily": 6975,
      "indulgence": 6976,
      "literally": 6977,
      "enthusiast": 6978,
      "sickening": 6979,
      "ronic": 6980,
      "roller": 6981,
      "admittedly": 6982,
      "smoother": 6983,
      "transformed": 6984,
      "salt": 6985,
      "hotel": 6986,
      "towards": 6987,
      "ridiculousness": 6988,
      "philosophy": 6989,
      "support": 6990,
      "circuit": 6991,
      "sensuality": 6992,
      "sportsmen": 6993,
      "ennial": 6994,
      "club": 6995,
      "wondrously": 6996,
      "dependence": 6997,
      "remaining": 6998,
      "immediately": 6999,
      "irreparable": 7000,
      "characterization": 7001,
      "emphasizes": 7002,
      "camoufla": 7003,
      "succumb": 7004,
      "jolts": 7005,
      "transformation": 7006,
      "spotlight": 7007,
      "aaaa": 7008,
      "dustin": 7009,
      "longest": 7010,
      "lunatic": 7011,
      "nickleby": 7012,
      "roots": 7013,
      "accurately": 7014,
      "freddy": 7015,
      "iconoclast": 7016,
      "1958": 7017,
      "atrocious": 7018,
      "duty": 7019,
      "puzzling": 7020,
      "concoction": 7021,
      "influenced": 7022,
      "inexplicably": 7023,
      "benefit": 7024,
      "sanctimonious": 7025,
      "rigor": 7026,
      "ironies": 7027,
      "emperor": 7028,
      "precisely": 7029,
      "legendary": 7030,
      "jealousy": 7031,
      "squeeze": 7032,
      "maddeningly": 7033,
      "incarnation": 7034,
      "individual": 7035,
      "weaknesses": 7036,
      "mexican": 7037,
      "melancholy": 7038,
      "hibited": 7039,
      "conspicuous": 7040,
      "reefs": 7041,
      "hypnotic": 7042,
      "relaxed": 7043,
      "awakening": 7044,
      "european": 7045,
      "mundane": 7046,
      "duration": 7047,
      "plympton": 7048,
      "allegory": 7049,
      "christopher": 7050,
      "ramsay": 7051,
      "solemn": 7052,
      "spaces": 7053,
      "fundament": 7054,
      "megaplex": 7055,
      "auteuil": 7056,
      "athletes": 7057,
      "porridge": 7058,
      "blaxploitation": 7059,
      "iconoclastic": 7060,
      "60s": 7061,
      "80": 7062,
      "bab": 7063,
      "bride": 7064,
      "callow": 7065,
      "dging": 7066,
      "ee": 7067,
      "ean": 7068,
      "fus": 7069,
      "fang": 7070,
      "hates": 7071,
      "kap": 7072,
      "kies": 7073,
      "kitten": 7074,
      "lou": 7075,
      "lers": 7076,
      "mors": 7077,
      "nash": 7078,
      "pous": 7079,
      "pup": 7080,
      "rant": 7081,
      "sso": 7082,
      "sard": 7083,
      "sung": 7084,
      "uously": 7085,
      "von": 7086,
      "vish": 7087,
      "yi": 7088,
      "yest": 7089,
      "ñuel": 7090,
      "thread": 7091,
      "inim": 7092,
      "inking": 7093,
      "anat": 7094,
      "ancing": 7095,
      "anza": 7096,
      "eric": 7097,
      "erday": 7098,
      "resc": 7099,
      "reacting": 7100,
      "recover": 7101,
      "sten": 7102,
      "sticks": 7103,
      "alert": 7104,
      "isolation": 7105,
      "anda": 7106,
      "arm": 7107,
      "arrog": 7108,
      "arrives": 7109,
      "toback": 7110,
      "leck": 7111,
      "chair": 7112,
      "bea": 7113,
      "beer": 7114,
      "bett": 7115,
      "sein": 7116,
      "seas": 7117,
      "unbl": 7118,
      "imit": 7119,
      "imes": 7120,
      "razz": 7121,
      "devol": 7122,
      "delect": 7123,
      "loser": 7124,
      "lored": 7125,
      "lodging": 7126,
      "viv": 7127,
      "map": 7128,
      "maze": 7129,
      "rogue": 7130,
      "rotten": 7131,
      "suitable": 7132,
      "whip": 7133,
      "adams": 7134,
      "advised": 7135,
      "admission": 7136,
      "rida": 7137,
      "withstanding": 7138,
      "diers": 7139,
      "shag": 7140,
      "shabby": 7141,
      "lavish": 7142,
      "feast": 7143,
      "fewer": 7144,
      "pole": 7145,
      "perfunct": 7146,
      "fulfill": 7147,
      "scra": 7148,
      "scandal": 7149,
      "soo": 7150,
      "worry": 7151,
      "managed": 7152,
      "manners": 7153,
      "romances": 7154,
      "urine": 7155,
      "urance": 7156,
      "prevent": 7157,
      "prospect": 7158,
      "weary": 7159,
      "hazard": 7160,
      "intention": 7161,
      "noticed": 7162,
      "notwithstanding": 7163,
      "timid": 7164,
      "endurance": 7165,
      "igree": 7166,
      "derrida": 7167,
      "boobs": 7168,
      "bopper": 7169,
      "acid": 7170,
      "accumul": 7171,
      "ishment": 7172,
      "guide": 7173,
      "covers": 7174,
      "colored": 7175,
      "humming": 7176,
      "phant": 7177,
      "insults": 7178,
      "oppress": 7179,
      "overused": 7180,
      "print": 7181,
      "disab": 7182,
      "performed": 7183,
      "grew": 7184,
      "visions": 7185,
      "bluster": 7186,
      "submarine": 7187,
      "grad": 7188,
      "speaks": 7189,
      "dude": 7190,
      "seeks": 7191,
      "apping": 7192,
      "enjoys": 7193,
      "plotline": 7194,
      "cheer": 7195,
      "humanizing": 7196,
      "truck": 7197,
      "ocy": 7198,
      "chosen": 7199,
      "backstage": 7200,
      "colors": 7201,
      "collabor": 7202,
      "swept": 7203,
      "craven": 7204,
      "showcase": 7205,
      "buñuel": 7206,
      "brosn": 7207,
      "starving": 7208,
      "distanced": 7209,
      "nier": 7210,
      "stuart": 7211,
      "bravery": 7212,
      "contempt": 7213,
      "skies": 7214,
      "clooney": 7215,
      "volum": 7216,
      "starting": 7217,
      "successfully": 7218,
      "teeny": 7219,
      "reflection": 7220,
      "dramatics": 7221,
      "sounding": 7222,
      "suffic": 7223,
      "folk": 7224,
      "soldiers": 7225,
      "dropping": 7226,
      "littered": 7227,
      "patch": 7228,
      "beats": 7229,
      "creepiness": 7230,
      "pedigree": 7231,
      "revealed": 7232,
      "thoughtfulness": 7233,
      "skillful": 7234,
      "breathes": 7235,
      "moralizing": 7236,
      "install": 7237,
      "depressed": 7238,
      "absurdities": 7239,
      "killed": 7240,
      "squad": 7241,
      "improved": 7242,
      "naturalistic": 7243,
      "pulsive": 7244,
      "forcement": 7245,
      "hitler": 7246,
      "resistance": 7247,
      "sources": 7248,
      "bullets": 7249,
      "altering": 7250,
      "grounded": 7251,
      "followed": 7252,
      "affleck": 7253,
      "revelations": 7254,
      "bands": 7255,
      "rapes": 7256,
      "crisis": 7257,
      "reaching": 7258,
      "reached": 7259,
      "spirituality": 7260,
      "praise": 7261,
      "praises": 7262,
      "reminder": 7263,
      "fearless": 7264,
      "palpable": 7265,
      "palette": 7266,
      "painted": 7267,
      "derived": 7268,
      "embrace": 7269,
      "embraced": 7270,
      "ussion": 7271,
      "relentless": 7272,
      "fabulous": 7273,
      "robin": 7274,
      "bogus": 7275,
      "fury": 7276,
      "fingers": 7277,
      "diesel": 7278,
      "specif": 7279,
      "chaos": 7280,
      "recogniz": 7281,
      "strictive": 7282,
      "idiocy": 7283,
      "recycling": 7284,
      "masses": 7285,
      "recklessness": 7286,
      "baffled": 7287,
      "golden": 7288,
      "distraction": 7289,
      "transcendent": 7290,
      "slipper": 7291,
      "knockout": 7292,
      "lucky": 7293,
      "introduction": 7294,
      "mountain": 7295,
      "educational": 7296,
      "aggressive": 7297,
      "randomness": 7298,
      "witnessed": 7299,
      "bonus": 7300,
      "church": 7301,
      "buttons": 7302,
      "contrivance": 7303,
      "extravaganza": 7304,
      "audacity": 7305,
      "excruciatingly": 7306,
      "journalism": 7307,
      "established": 7308,
      "scares": 7309,
      "haphazard": 7310,
      "crosso": 7311,
      "discipline": 7312,
      "conjured": 7313,
      "vietnamese": 7314,
      "consuming": 7315,
      "crammed": 7316,
      "hopelessly": 7317,
      "enigma": 7318,
      "cranky": 7319,
      "gigg": 7320,
      "illustrates": 7321,
      "assault": 7322,
      "youthful": 7323,
      "insecure": 7324,
      "racist": 7325,
      "conduct": 7326,
      "lurches": 7327,
      "gibson": 7328,
      "metaphors": 7329,
      "champion": 7330,
      "farcical": 7331,
      "brisk": 7332,
      "paxton": 7333,
      "echoes": 7334,
      "kapur": 7335,
      "sardonic": 7336,
      "yesterday": 7337,
      "inimitable": 7338,
      "anatomical": 7339,
      "rescue": 7340,
      "unblinking": 7341,
      "devolves": 7342,
      "delectable": 7343,
      "perfunctory": 7344,
      "intentioned": 7345,
      "brosnan": 7346,
      "crossover": 7347,
      "austr": 7348,
      "cingly": 7349,
      "dits": 7350,
      "eter": 7351,
      "fon": 7352,
      "fid": 7353,
      "ffl": 7354,
      "jet": 7355,
      "jug": 7356,
      "jolly": 7357,
      "kaf": 7358,
      "lion": 7359,
      "nible": 7360,
      "oved": 7361,
      "pau": 7362,
      "pandering": 7363,
      "ritch": 7364,
      "rase": 7365,
      "slog": 7366,
      "sessions": 7367,
      "tly": 7368,
      "tattered": 7369,
      "uct": 7370,
      "ucin": 7371,
      "vastly": 7372,
      "wart": 7373,
      "wrest": 7374,
      "zes": 7375,
      "zens": 7376,
      "inauthentic": 7377,
      "inappropriate": 7378,
      "anity": 7379,
      "errors": 7380,
      "requisite": 7381,
      "research": 7382,
      "thew": 7383,
      "stan": 7384,
      "ority": 7385,
      "ordeal": 7386,
      "isly": 7387,
      "escrib": 7388,
      "ofus": 7389,
      "edits": 7390,
      "levity": 7391,
      "chap": 7392,
      "cholic": 7393,
      "chateau": 7394,
      "mock": 7395,
      "beguil": 7396,
      "bewilder": 7397,
      "seam": 7398,
      "unky": 7399,
      "unsatisfying": 7400,
      "unmemorable": 7401,
      "unwatchable": 7402,
      "unexplain": 7403,
      "rapt": 7404,
      "raises": 7405,
      "degra": 7406,
      "ulation": 7407,
      "lier": 7408,
      "rop": 7409,
      "wher": 7410,
      "whir": 7411,
      "comics": 7412,
      "widow": 7413,
      "essential": 7414,
      "shred": 7415,
      "shtick": 7416,
      "olate": 7417,
      "outcome": 7418,
      "irations": 7419,
      "conform": 7420,
      "scu": 7421,
      "scot": 7422,
      "dot": 7423,
      "dozens": 7424,
      "doofus": 7425,
      "illen": 7426,
      "ayas": 7427,
      "urgently": 7428,
      "predic": 7429,
      "spice": 7430,
      "heat": 7431,
      "hears": 7432,
      "evade": 7433,
      "owing": 7434,
      "indescrib": 7435,
      "clut": 7436,
      "clad": 7437,
      "clash": 7438,
      "clunky": 7439,
      "guffa": 7440,
      "placing": 7441,
      "estic": 7442,
      "thrust": 7443,
      "fade": 7444,
      "inson": 7445,
      "insens": 7446,
      "flated": 7447,
      "assayas": 7448,
      "overrun": 7449,
      "overtly": 7450,
      "displays": 7451,
      "atively": 7452,
      "canon": 7453,
      "brus": 7454,
      "compared": 7455,
      "interaction": 7456,
      "screens": 7457,
      "genius": 7458,
      "blings": 7459,
      "serial": 7460,
      "merits": 7461,
      "merchant": 7462,
      "grisly": 7463,
      "duke": 7464,
      "dupe": 7465,
      "smiles": 7466,
      "undercurrent": 7467,
      "interestingly": 7468,
      "myst": 7469,
      "partner": 7470,
      "seeming": 7471,
      "hokey": 7472,
      "downs": 7473,
      "turd": 7474,
      "belief": 7475,
      "carved": 7476,
      "trek": 7477,
      "cheeky": 7478,
      "awake": 7479,
      "occup": 7480,
      "powered": 7481,
      "months": 7482,
      "ppled": 7483,
      "strung": 7484,
      "backmas": 7485,
      "backdrops": 7486,
      "isms": 7487,
      "steers": 7488,
      "cuts": 7489,
      "highs": 7490,
      "shower": 7491,
      "capra": 7492,
      "bucks": 7493,
      "rung": 7494,
      "morris": 7495,
      "struck": 7496,
      "sentence": 7497,
      "afternoon": 7498,
      "relate": 7499,
      "reluct": 7500,
      "spective": 7501,
      "maternal": 7502,
      "theatr": 7503,
      "consolation": 7504,
      "fascination": 7505,
      "expecting": 7506,
      "ysis": 7507,
      "anime": 7508,
      "animat": 7509,
      "simmer": 7510,
      "darkness": 7511,
      "souffl": 7512,
      "videotape": 7513,
      "engagingly": 7514,
      "nair": 7515,
      "bargain": 7516,
      "midt": 7517,
      "midway": 7518,
      "exploit": 7519,
      "venice": 7520,
      "liners": 7521,
      "schmidt": 7522,
      "effortless": 7523,
      "sorority": 7524,
      "burden": 7525,
      "burger": 7526,
      "pastiche": 7527,
      "197": 7528,
      "19th": 7529,
      "basement": 7530,
      "begun": 7531,
      "garde": 7532,
      "strangers": 7533,
      "flawless": 7534,
      "griff": 7535,
      "examines": 7536,
      "curves": 7537,
      "gnant": 7538,
      "wildlife": 7539,
      "defined": 7540,
      "clause": 7541,
      "rocky": 7542,
      "virul": 7543,
      "mysteries": 7544,
      "payami": 7545,
      "onym": 7546,
      "stunningly": 7547,
      "legged": 7548,
      "majestic": 7549,
      "lanes": 7550,
      "jackass": 7551,
      "sleek": 7552,
      "package": 7553,
      "dana": 7554,
      "punct": 7555,
      "attering": 7556,
      "sticky": 7557,
      "aspirations": 7558,
      "layer": 7559,
      "crippled": 7560,
      "enticing": 7561,
      "dimension": 7562,
      "resonate": 7563,
      "productions": 7564,
      "shared": 7565,
      "furi": 7566,
      "throat": 7567,
      "robinson": 7568,
      "floor": 7569,
      "jake": 7570,
      "deception": 7571,
      "significantly": 7572,
      "hallucin": 7573,
      "scathing": 7574,
      "noticeably": 7575,
      "teachers": 7576,
      "species": 7577,
      "negative": 7578,
      "strengths": 7579,
      "victimized": 7580,
      "sara": 7581,
      "smugly": 7582,
      "connected": 7583,
      "spinning": 7584,
      "grub": 7585,
      "melancholic": 7586,
      "sudsy": 7587,
      "irresistibly": 7588,
      "dubious": 7589,
      "received": 7590,
      "jagged": 7591,
      "stinks": 7592,
      "awareness": 7593,
      "fixating": 7594,
      "olivi": 7595,
      "fluffy": 7596,
      "dynamics": 7597,
      "extravagant": 7598,
      "carrying": 7599,
      "debate": 7600,
      "heightened": 7601,
      "dutiful": 7602,
      "repellent": 7603,
      "nostalgia": 7604,
      "sublimely": 7605,
      "tablo": 7606,
      "spontaneous": 7607,
      "crafty": 7608,
      "disturb": 7609,
      "disturbing": 7610,
      "hatred": 7611,
      "inexplicable": 7612,
      "enigmatic": 7613,
      "investig": 7614,
      "complaint": 7615,
      "jacqu": 7616,
      "anguish": 7617,
      "unbearably": 7618,
      "mechanical": 7619,
      "symbolic": 7620,
      "concentrates": 7621,
      "serenity": 7622,
      "atmospheric": 7623,
      "schmaltz": 7624,
      "tempting": 7625,
      "dopey": 7626,
      "bodied": 7627,
      "incorporates": 7628,
      "bursts": 7629,
      "enlightening": 7630,
      "pedestrian": 7631,
      "elizabeth": 7632,
      "modesty": 7633,
      "cumbersome": 7634,
      "piercing": 7635,
      "infectious": 7636,
      "antonia": 7637,
      "pollution": 7638,
      "definition": 7639,
      "juliette": 7640,
      "technique": 7641,
      "lonely": 7642,
      "histrionics": 7643,
      "depraved": 7644,
      "mumbo": 7645,
      "analysis": 7646,
      "screwball": 7647,
      "michel": 7648,
      "ditsy": 7649,
      "kafka": 7650,
      "ritchie": 7651,
      "beguiling": 7652,
      "predicament": 7653,
      "indescribably": 7654,
      "guffaw": 7655,
      "insensitivity": 7656,
      "backmasking": 7657,
      "reluctant": 7658,
      "soufflé": 7659,
      "16": 7660,
      "40": 7661,
      "86": 7662,
      "bis": 7663,
      "bod": 7664,
      "bitten": 7665,
      "bino": 7666,
      "cad": 7667,
      "cash": 7668,
      "ccer": 7669,
      "easter": 7670,
      "hint": 7671,
      "jaded": 7672,
      "las": 7673,
      "mé": 7674,
      "mong": 7675,
      "mary": 7676,
      "nberry": 7677,
      "ole": 7678,
      "oks": 7679,
      "pound": 7680,
      "rhe": 7681,
      "rarity": 7682,
      "snail": 7683,
      "tin": 7684,
      "twe": 7685,
      "tics": 7686,
      "tug": 7687,
      "tied": 7688,
      "tank": 7689,
      "ugl": 7690,
      "vili": 7691,
      "vasive": 7692,
      "wes": 7693,
      "wdry": 7694,
      "ziness": 7695,
      "ana": 7696,
      "reserved": 7697,
      "encount": 7698,
      "ato": 7699,
      "atop": 7700,
      "atfalls": 7701,
      "stable": 7702,
      "orland": 7703,
      "orium": 7704,
      "itage": 7705,
      "itution": 7706,
      "lywood": 7707,
      "icide": 7708,
      "leth": 7709,
      "asi": 7710,
      "chi": 7711,
      "chou": 7712,
      "chief": 7713,
      "sealed": 7714,
      "unge": 7715,
      "imbu": 7716,
      "rain": 7717,
      "dean": 7718,
      "abund": 7719,
      "rodri": 7720,
      "uted": 7721,
      "rigid": 7722,
      "dile": 7723,
      "active": 7724,
      "feet": 7725,
      "conquer": 7726,
      "pets": 7727,
      "odge": 7728,
      "pered": 7729,
      "perils": 7730,
      "pervasive": 7731,
      "uments": 7732,
      "nebri": 7733,
      "scruff": 7734,
      "doct": 7735,
      "dowell": 7736,
      "soccer": 7737,
      "therap": 7738,
      "quet": 7739,
      "taut": 7740,
      "taine": 7741,
      "tawdry": 7742,
      "agent": 7743,
      "spins": 7744,
      "inestim": 7745,
      "clung": 7746,
      "climax": 7747,
      "arded": 7748,
      "acute": 7749,
      "eped": 7750,
      "cooper": 7751,
      "directions": 7752,
      "jolie": 7753,
      "musc": 7754,
      "opened": 7755,
      "pratfalls": 7756,
      "dismiss": 7757,
      "disease": 7758,
      "surfing": 7759,
      "brated": 7760,
      "waters": 7761,
      "watered": 7762,
      "interviews": 7763,
      "achron": 7764,
      "ashvili": 7765,
      "loveable": 7766,
      "mercy": 7767,
      "smirk": 7768,
      "hook": 7769,
      "downward": 7770,
      "beloved": 7771,
      "applies": 7772,
      "twohy": 7773,
      "worthless": 7774,
      "thinness": 7775,
      "avant": 7776,
      "steam": 7777,
      "steeped": 7778,
      "antics": 7779,
      "buzz": 7780,
      "plum": 7781,
      "plug": 7782,
      "cynic": 7783,
      "gio": 7784,
      "morph": 7785,
      "fiend": 7786,
      "afterthought": 7787,
      "cultiv": 7788,
      "possibility": 7789,
      "brains": 7790,
      "enervating": 7791,
      "smartest": 7792,
      "fascinate": 7793,
      "passes": 7794,
      "walsh": 7795,
      "richness": 7796,
      "naive": 7797,
      "zzzz": 7798,
      "explode": 7799,
      "falling": 7800,
      "psych": 7801,
      "ticking": 7802,
      "girlfriend": 7803,
      "setups": 7804,
      "surefire": 7805,
      "twisty": 7806,
      "scha": 7807,
      "nonconform": 7808,
      "banality": 7809,
      "politan": 7810,
      "wastes": 7811,
      "stress": 7812,
      "deserving": 7813,
      "reasons": 7814,
      "hopes": 7815,
      "thornberry": 7816,
      "steady": 7817,
      "destined": 7818,
      "simpleminded": 7819,
      "sympath": 7820,
      "stepped": 7821,
      "instance": 7822,
      "institution": 7823,
      "region": 7824,
      "depression": 7825,
      "sleeper": 7826,
      "critique": 7827,
      "vari": 7828,
      "rists": 7829,
      "moods": 7830,
      "laborious": 7831,
      "scoop": 7832,
      "brainless": 7833,
      "shapes": 7834,
      "hampered": 7835,
      "absurdly": 7836,
      "issue": 7837,
      "provoked": 7838,
      "costner": 7839,
      "achievements": 7840,
      "facile": 7841,
      "madness": 7842,
      "painting": 7843,
      "bollywood": 7844,
      "sided": 7845,
      "nelson": 7846,
      "sensuous": 7847,
      "guts": 7848,
      "gutless": 7849,
      "mcdorm": 7850,
      "exploring": 7851,
      "toric": 7852,
      "bogdan": 7853,
      "traditionally": 7854,
      "pileup": 7855,
      "cardboard": 7856,
      "oozing": 7857,
      "pitched": 7858,
      "biography": 7859,
      "regardless": 7860,
      "recognized": 7861,
      "comprehension": 7862,
      "channeling": 7863,
      "nominated": 7864,
      "require": 7865,
      "stretched": 7866,
      "ambiguity": 7867,
      "billed": 7868,
      "cohesion": 7869,
      "slackers": 7870,
      "shrek": 7871,
      "margin": 7872,
      "peculiarly": 7873,
      "radar": 7874,
      "pompous": 7875,
      "education": 7876,
      "experimental": 7877,
      "tuxed": 7878,
      "smoochy": 7879,
      "calibrated": 7880,
      "1999": 7881,
      "weave": 7882,
      "cleaner": 7883,
      "democra": 7884,
      "evoking": 7885,
      "expertly": 7886,
      "raunchy": 7887,
      "episodic": 7888,
      "shakespearean": 7889,
      "catholic": 7890,
      "forcefulness": 7891,
      "deliberately": 7892,
      "stroke": 7893,
      "sanctimony": 7894,
      "unbearable": 7895,
      "weepy": 7896,
      "mechanics": 7897,
      "darling": 7898,
      "arguments": 7899,
      "metropolitan": 7900,
      "brushes": 7901,
      "snore": 7902,
      "fondness": 7903,
      "nourishing": 7904,
      "hypocritical": 7905,
      "proficient": 7906,
      "chasing": 7907,
      "insignificance": 7908,
      "rubbo": 7909,
      "optimistic": 7910,
      "conversations": 7911,
      "peppered": 7912,
      "harris": 7913,
      "weighs": 7914,
      "disquieting": 7915,
      "numerous": 7916,
      "misanthropic": 7917,
      "suffocating": 7918,
      "precedent": 7919,
      "austin": 7920,
      "interpretation": 7921,
      "retaliation": 7922,
      "updating": 7923,
      "threadbare": 7924,
      "slippery": 7925,
      "fontaine": 7926,
      "griffith": 7927,
      "binoche": 7928,
      "eastern": 7929,
      "mongering": 7930,
      "pounding": 7931,
      "rhetoric": 7932,
      "ugliness": 7933,
      "encounters": 7934,
      "orlando": 7935,
      "nebrida": 7936,
      "scruffy": 7937,
      "therapy": 7938,
      "inestimable": 7939,
      "mcdormand": 7940,
      "tuxedo": 7941,
      "50": 7942,
      "60": 7943,
      "99": 7944,
      "aper": 7945,
      "aus": 7946,
      "aids": 7947,
      "bess": 7948,
      "cind": 7949,
      "cated": 7950,
      "dough": 7951,
      "dren": 7952,
      "drow": 7953,
      "dles": 7954,
      "dinner": 7955,
      "ethere": 7956,
      "fess": 7957,
      "gas": 7958,
      "gag": 7959,
      "gere": 7960,
      "hous": 7961,
      "iat": 7962,
      "iac": 7963,
      "kil": 7964,
      "kir": 7965,
      "kho": 7966,
      "kos": 7967,
      "mull": 7968,
      "napp": 7969,
      "oz": 7970,
      "ovan": 7971,
      "ographed": 7972,
      "pg": 7973,
      "pis": 7974,
      "pent": 7975,
      "pess": 7976,
      "penter": 7977,
      "spre": 7978,
      "sively": 7979,
      "tes": 7980,
      "tle": 7981,
      "tact": 7982,
      "tence": 7983,
      "tatters": 7984,
      "uum": 7985,
      "vents": 7986,
      "wendi": 7987,
      "ini": 7988,
      "init": 7989,
      "inad": 7990,
      "inform": 7991,
      "inquent": 7992,
      "anks": 7993,
      "anni": 7994,
      "ercial": 7995,
      "erella": 7996,
      "rediscover": 7997,
      "retool": 7998,
      "restrictive": 7999
    },
    "merges": [
      [
        "t",
        "h"
      ],
      [
        "i",
        "n"
      ],
      [
        "a",
        "n"
      ],
      [
        "e",
        "r"
      ],
      [
        "r",
        "e"
      ],
      [
        "e",
        "n"
      ],
      [
        "th",
        "e"
      ],
      [
        "a",
        "t"
      ],
      [
        "o",
        "n"
      ],
      [
        "in",
        "g"
      ],
      [
        "s",
        "t"
      ],
      [
        "o",
        "r"
      ],
      [
        "i",
        "t"
      ],
      [
        "a",
        "l"
      ],
      [
        "i",
        "s"
      ],
      [
        "an",
        "d"
      ],
      [
        "e",
        "s"
      ],
      [
        "o",
        "u"
      ],
      [
        "a",
        "r"
      ],
      [
        "o",
        "f"
      ],
      [
        "l",
        "y"
      ],
      [
        "t",
        "o"
      ],
      [
        "e",
        "d"
      ],
      [
        "i",
        "c"
      ],
      [
        "l",
        "e"
      ],
      [
        "a",
        "s"
      ],
      [
        "o",
        "m"
      ],
      [
        "i",
        "l"
      ],
      [
        "c",
        "h"
      ],
      [
        "e",
        "l"
      ],
      [
        "m",
        "o"
      ],
      [
        "c",
        "t"
      ],
      [
        "en",
        "t"
      ],
      [
        "i",
        "on"
      ],
      [
        "b",
        "e"
      ],
      [
        "s",
        "e"
      ],
      [
        "u",
        "n"
      ],
      [
        "v",
        "e"
      ],
      [
        "i",
        "m"
      ],
      [
        "th",
        "at"
      ],
      [
        "r",
        "a"
      ],
      [
        "d",
        "e"
      ],
      [
        "u",
        "l"
      ],
      [
        "l",
        "o"
      ],
      [
        "a",
        "b"
      ],
      [
        "g",
        "h"
      ],
      [
        "v",
        "i"
      ],
      [
        "f",
        "or"
      ],
      [
        "m",
        "a"
      ],
      [
        "l",
        "i"
      ],
      [
        "c",
        "e"
      ],
      [
        "v",
        "er"
      ],
      [
        "r",
        "o"
      ],
      [
        "u",
        "t"
      ],
      [
        "s",
        "u"
      ],
      [
        "w",
        "h"
      ],
      [
        "c",
        "om"
      ],
      [
        "w",
        "i"
      ],
      [
        "n",
        "o"
      ],
      [
        "f",
        "il"
      ],
      [
        "a",
        "d"
      ],
      [
        "r",
        "i"
      ],
      [
        "wi",
        "th"
      ],
      [
        "es",
        "s"
      ],
      [
        "fil",
        "m"
      ],
      [
        "a",
        "m"
      ],
      [
        "d",
        "i"
      ],
      [
        "s",
        "h"
      ],
      [
        "k",
        "e"
      ],
      [
        "a",
        "ct"
      ],
      [
        "l",
        "a"
      ],
      [
        "g",
        "e"
      ],
      [
        "it",
        "s"
      ],
      [
        "o",
        "l"
      ],
      [
        "f",
        "e"
      ],
      [
        "ou",
        "t"
      ],
      [
        "mo",
        "vi"
      ],
      [
        "i",
        "r"
      ],
      [
        "y",
        "ou"
      ],
      [
        "er",
        "s"
      ],
      [
        "e",
        "x"
      ],
      [
        "on",
        "e"
      ],
      [
        "p",
        "o"
      ],
      [
        "t",
        "er"
      ],
      [
        "movi",
        "e"
      ],
      [
        "c",
        "on"
      ],
      [
        "ou",
        "s"
      ],
      [
        "p",
        "e"
      ],
      [
        "o",
        "d"
      ],
      [
        "p",
        "er"
      ],
      [
        "u",
        "m"
      ],
      [
        "f",
        "ul"
      ],
      [
        "n",
        "e"
      ],
      [
        "s",
        "c"
      ],
      [
        "d",
        "o"
      ],
      [
        "gh",
        "t"
      ],
      [
        "s",
        "o"
      ],
      [
        "i",
        "ve"
      ],
      [
        "ar",
        "t"
      ],
      [
        "c",
        "k"
      ],
      [
        "th",
        "is"
      ],
      [
        "a",
        "re"
      ],
      [
        "al",
        "l"
      ],
      [
        "an",
        "t"
      ],
      [
        "e",
        "m"
      ],
      [
        "at",
        "ion"
      ],
      [
        "th",
        "er"
      ],
      [
        "g",
        "o"
      ],
      [
        "a",
        "p"
      ],
      [
        "w",
        "or"
      ],
      [
        "q",
        "u"
      ],
      [
        "t",
        "a"
      ],
      [
        "b",
        "ut"
      ],
      [
        "il",
        "l"
      ],
      [
        "a",
        "y"
      ],
      [
        "ab",
        "le"
      ],
      [
        "u",
        "re"
      ],
      [
        "al",
        "ly"
      ],
      [
        "m",
        "an"
      ],
      [
        "r",
        "om"
      ],
      [
        "u",
        "s"
      ],
      [
        "u",
        "r"
      ],
      [
        "p",
        "re"
      ],
      [
        "a",
        "g"
      ],
      [
        "s",
        "p"
      ],
      [
        "at",
        "e"
      ],
      [
        "i",
        "d"
      ],
      [
        ".",
        "."
      ],
      [
        "h",
        "e"
      ],
      [
        "ch",
        "ar"
      ],
      [
        "it",
        "y"
      ],
      [
        "om",
        "e"
      ],
      [
        "el",
        "l"
      ],
      [
        "p",
        "ro"
      ],
      [
        "w",
        "e"
      ],
      [
        "h",
        "a"
      ],
      [
        "in",
        "t"
      ],
      [
        "or",
        "y"
      ],
      [
        "b",
        "y"
      ],
      [
        "a",
        "st"
      ],
      [
        "l",
        "d"
      ],
      [
        "s",
        "ome"
      ],
      [
        "no",
        "t"
      ],
      [
        "t",
        "im"
      ],
      [
        "th",
        "ing"
      ],
      [
        "i",
        "st"
      ],
      [
        "u",
        "st"
      ],
      [
        "en",
        "d"
      ],
      [
        "mo",
        "re"
      ],
      [
        "e",
        "v"
      ],
      [
        "th",
        "an"
      ],
      [
        "ou",
        "gh"
      ],
      [
        "f",
        "un"
      ],
      [
        "li",
        "ke"
      ],
      [
        "-",
        "-"
      ],
      [
        "o",
        "w"
      ],
      [
        "in",
        "d"
      ],
      [
        "in",
        "e"
      ],
      [
        "p",
        "le"
      ],
      [
        "h",
        "as"
      ],
      [
        "u",
        "p"
      ],
      [
        "ver",
        "y"
      ],
      [
        "i",
        "g"
      ],
      [
        "mo",
        "st"
      ],
      [
        "s",
        "s"
      ],
      [
        "d",
        "er"
      ],
      [
        "i",
        "f"
      ],
      [
        "k",
        "ing"
      ],
      [
        "h",
        "is"
      ],
      [
        "ab",
        "out"
      ],
      [
        "f",
        "rom"
      ],
      [
        "en",
        "ce"
      ],
      [
        "c",
        "l"
      ],
      [
        "r",
        "u"
      ],
      [
        "b",
        "o"
      ],
      [
        "t",
        "s"
      ],
      [
        "it",
        "t"
      ],
      [
        "i",
        "ght"
      ],
      [
        "char",
        "act"
      ],
      [
        "ic",
        "h"
      ],
      [
        "ar",
        "d"
      ],
      [
        "e",
        "t"
      ],
      [
        "wh",
        "o"
      ],
      [
        "ha",
        "ve"
      ],
      [
        "st",
        "ory"
      ],
      [
        "ou",
        "ld"
      ],
      [
        "a",
        "u"
      ],
      [
        "i",
        "ous"
      ],
      [
        "w",
        "ay"
      ],
      [
        "p",
        "t"
      ],
      [
        "l",
        "ess"
      ],
      [
        "a",
        "c"
      ],
      [
        "t",
        "e"
      ],
      [
        "i",
        "al"
      ],
      [
        "t",
        "ra"
      ],
      [
        "is",
        "h"
      ],
      [
        "go",
        "od"
      ],
      [
        "g",
        "u"
      ],
      [
        "p",
        "la"
      ],
      [
        "b",
        "le"
      ],
      [
        "ou",
        "n"
      ],
      [
        "e",
        "p"
      ],
      [
        "c",
        "o"
      ],
      [
        "c",
        "es"
      ],
      [
        "ou",
        "r"
      ],
      [
        "w",
        "o"
      ],
      [
        "n",
        "y"
      ],
      [
        "an",
        "y"
      ],
      [
        "h",
        "er"
      ],
      [
        "re",
        "ct"
      ],
      [
        "on",
        "g"
      ],
      [
        "h",
        "um"
      ],
      [
        "e",
        "st"
      ],
      [
        "c",
        "re"
      ],
      [
        "di",
        "rect"
      ],
      [
        "m",
        "ent"
      ],
      [
        "in",
        "to"
      ],
      [
        "k",
        "s"
      ],
      [
        "to",
        "o"
      ],
      [
        "th",
        "r"
      ],
      [
        "f",
        "a"
      ],
      [
        "m",
        "e"
      ],
      [
        "j",
        "o"
      ],
      [
        "p",
        "a"
      ],
      [
        "r",
        "y"
      ],
      [
        "p",
        "h"
      ],
      [
        "of",
        "f"
      ],
      [
        "k",
        "es"
      ],
      [
        "m",
        "at"
      ],
      [
        "in",
        "s"
      ],
      [
        "f",
        "l"
      ],
      [
        "i",
        "es"
      ],
      [
        "com",
        "ed"
      ],
      [
        "..",
        "."
      ],
      [
        "lo",
        "w"
      ],
      [
        "d",
        "ra"
      ],
      [
        "ar",
        "y"
      ],
      [
        "fun",
        "ny"
      ],
      [
        "m",
        "u"
      ],
      [
        "at",
        "ing"
      ],
      [
        "o",
        "p"
      ],
      [
        "ic",
        "al"
      ],
      [
        "as",
        "s"
      ],
      [
        "ic",
        "t"
      ],
      [
        "o",
        "ver"
      ],
      [
        "el",
        "f"
      ],
      [
        "ev",
        "en"
      ],
      [
        "v",
        "es"
      ],
      [
        "p",
        "r"
      ],
      [
        "d",
        "is"
      ],
      [
        "w",
        "n"
      ],
      [
        "tim",
        "e"
      ],
      [
        "at",
        "ive"
      ],
      [
        "j",
        "ust"
      ],
      [
        "en",
        "se"
      ],
      [
        "ol",
        "d"
      ],
      [
        "i",
        "e"
      ],
      [
        "i",
        "re"
      ],
      [
        "p",
        "lo"
      ],
      [
        "e",
        "ar"
      ],
      [
        "ta",
        "in"
      ],
      [
        "c",
        "an"
      ],
      [
        "is",
        "e"
      ],
      [
        "per",
        "for"
      ],
      [
        "g",
        "re"
      ],
      [
        "ic",
        "k"
      ],
      [
        "charact",
        "ers"
      ],
      [
        "en",
        "s"
      ],
      [
        "ing",
        "ly"
      ],
      [
        "su",
        "r"
      ],
      [
        "o",
        "ther"
      ],
      [
        "b",
        "r"
      ],
      [
        "w",
        "er"
      ],
      [
        "f",
        "f"
      ],
      [
        "fe",
        "el"
      ],
      [
        "comed",
        "y"
      ],
      [
        "wh",
        "at"
      ],
      [
        "at",
        "ed"
      ],
      [
        "w",
        "ell"
      ],
      [
        "com",
        "p"
      ],
      [
        "t",
        "al"
      ],
      [
        "you",
        "r"
      ],
      [
        "n",
        "ess"
      ],
      [
        "er",
        "tain"
      ],
      [
        "it",
        "e"
      ],
      [
        "b",
        "ad"
      ],
      [
        "w",
        "at"
      ],
      [
        "w",
        "ill"
      ],
      [
        "ic",
        "e"
      ],
      [
        "perfor",
        "man"
      ],
      [
        "f",
        "re"
      ],
      [
        "in",
        "ter"
      ],
      [
        "t",
        "t"
      ],
      [
        "m",
        "ar"
      ],
      [
        "oun",
        "d"
      ],
      [
        "sc",
        "re"
      ],
      [
        "re",
        "al"
      ],
      [
        "do",
        "es"
      ],
      [
        "v",
        "is"
      ],
      [
        "g",
        "en"
      ],
      [
        "b",
        "l"
      ],
      [
        "fe",
        "ct"
      ],
      [
        "i",
        "z"
      ],
      [
        "i",
        "le"
      ],
      [
        "mu",
        "ch"
      ],
      [
        "i",
        "de"
      ],
      [
        "s",
        "er"
      ],
      [
        "lo",
        "o"
      ],
      [
        "m",
        "in"
      ],
      [
        "or",
        "t"
      ],
      [
        "o",
        "t"
      ],
      [
        "d",
        "es"
      ],
      [
        "a",
        "ge"
      ],
      [
        "b",
        "er"
      ],
      [
        "li",
        "fe"
      ],
      [
        "a",
        "ch"
      ],
      [
        "su",
        "b"
      ],
      [
        "v",
        "ing"
      ],
      [
        "the",
        "ir"
      ],
      [
        "l",
        "itt"
      ],
      [
        "wor",
        "k"
      ],
      [
        "as",
        "h"
      ],
      [
        "d",
        "el"
      ],
      [
        "a",
        "f"
      ],
      [
        "litt",
        "le"
      ],
      [
        "e",
        "very"
      ],
      [
        "an",
        "ce"
      ],
      [
        "`",
        "`"
      ],
      [
        "lo",
        "ve"
      ],
      [
        "w",
        "r"
      ],
      [
        "he",
        "art"
      ],
      [
        "m",
        "er"
      ],
      [
        "'",
        "'"
      ],
      [
        "pla",
        "y"
      ],
      [
        "i",
        "p"
      ],
      [
        "g",
        "ra"
      ],
      [
        "s",
        "pe"
      ],
      [
        "st",
        "er"
      ],
      [
        "ma",
        "ke"
      ],
      [
        "i",
        "ly"
      ],
      [
        "scre",
        "en"
      ],
      [
        "g",
        "r"
      ],
      [
        "wat",
        "ch"
      ],
      [
        "v",
        "el"
      ],
      [
        "be",
        "t"
      ],
      [
        "ul",
        "t"
      ],
      [
        "r",
        "an"
      ],
      [
        "be",
        "st"
      ],
      [
        "ent",
        "ertain"
      ],
      [
        "im",
        "p"
      ],
      [
        "wh",
        "ich"
      ],
      [
        "s",
        "elf"
      ],
      [
        "i",
        "v"
      ],
      [
        "d",
        "u"
      ],
      [
        "direct",
        "or"
      ],
      [
        "ful",
        "ly"
      ],
      [
        "ne",
        "w"
      ],
      [
        "e",
        "f"
      ],
      [
        "be",
        "en"
      ],
      [
        "mo",
        "t"
      ],
      [
        "ge",
        "t"
      ],
      [
        "y",
        "ear"
      ],
      [
        "se",
        "e"
      ],
      [
        "thr",
        "ough"
      ],
      [
        "w",
        "ar"
      ],
      [
        "l",
        "ing"
      ],
      [
        "s",
        "m"
      ],
      [
        "c",
        "ess"
      ],
      [
        "a",
        "ck"
      ],
      [
        "t",
        "ri"
      ],
      [
        "c",
        "in"
      ],
      [
        "act",
        "ion"
      ],
      [
        "hum",
        "or"
      ],
      [
        "o",
        "re"
      ],
      [
        "s",
        "y"
      ],
      [
        "u",
        "d"
      ],
      [
        "ther",
        "e"
      ],
      [
        "un",
        "der"
      ],
      [
        "en",
        "ough"
      ],
      [
        "ent",
        "s"
      ],
      [
        "ion",
        "s"
      ],
      [
        "on",
        "ly"
      ],
      [
        "u",
        "al"
      ],
      [
        "inter",
        "est"
      ],
      [
        "m",
        "y"
      ],
      [
        "j",
        "e"
      ],
      [
        "ion",
        "al"
      ],
      [
        "f",
        "am"
      ],
      [
        "jo",
        "y"
      ],
      [
        "ne",
        "ver"
      ],
      [
        "p",
        "art"
      ],
      [
        "en",
        "g"
      ],
      [
        "re",
        "n"
      ],
      [
        "se",
        "em"
      ],
      [
        "am",
        "e"
      ],
      [
        "ab",
        "ly"
      ],
      [
        "ma",
        "de"
      ],
      [
        "ma",
        "kes"
      ],
      [
        "au",
        "di"
      ],
      [
        "c",
        "le"
      ],
      [
        "h",
        "o"
      ],
      [
        "the",
        "m"
      ],
      [
        "c",
        "ent"
      ],
      [
        "im",
        "ag"
      ],
      [
        "some",
        "thing"
      ],
      [
        "com",
        "e"
      ],
      [
        "movi",
        "es"
      ],
      [
        "a",
        "ut"
      ],
      [
        "do",
        "wn"
      ],
      [
        "u",
        "gh"
      ],
      [
        "st",
        "y"
      ],
      [
        "gre",
        "at"
      ],
      [
        "or",
        "s"
      ],
      [
        "la",
        "ck"
      ],
      [
        "the",
        "y"
      ],
      [
        "n",
        "ing"
      ],
      [
        "ell",
        "ing"
      ],
      [
        "o",
        "b"
      ],
      [
        "w",
        "as"
      ],
      [
        "c",
        "ast"
      ],
      [
        "t",
        "ur"
      ],
      [
        "sp",
        "ir"
      ],
      [
        "il",
        "d"
      ],
      [
        "ri",
        "ght"
      ],
      [
        "in",
        "al"
      ],
      [
        "h",
        "ow"
      ],
      [
        "je",
        "ct"
      ],
      [
        "d",
        "ay"
      ],
      [
        "ple",
        "as"
      ],
      [
        "la",
        "ugh"
      ],
      [
        "pre",
        "ss"
      ],
      [
        "ow",
        "n"
      ],
      [
        "ro",
        "w"
      ],
      [
        "v",
        "ent"
      ],
      [
        "an",
        "g"
      ],
      [
        "l",
        "ong"
      ],
      [
        "c",
        "r"
      ],
      [
        "g",
        "ent"
      ],
      [
        "charact",
        "er"
      ],
      [
        "po",
        "int"
      ],
      [
        "b",
        "el"
      ],
      [
        "w",
        "ould"
      ],
      [
        "ap",
        "p"
      ],
      [
        "am",
        "er"
      ],
      [
        "e",
        "mot"
      ],
      [
        "c",
        "ar"
      ],
      [
        "en",
        "joy"
      ],
      [
        "dra",
        "ma"
      ],
      [
        "t",
        "y"
      ],
      [
        "plo",
        "t"
      ],
      [
        "ma",
        "y"
      ],
      [
        "min",
        "ut"
      ],
      [
        "an",
        "s"
      ],
      [
        "gu",
        "e"
      ],
      [
        "t",
        "re"
      ],
      [
        "ch",
        "e"
      ],
      [
        "be",
        "aut"
      ],
      [
        "s",
        "ense"
      ],
      [
        "a",
        "in"
      ],
      [
        "no",
        "w"
      ],
      [
        "t",
        "wo"
      ],
      [
        "man",
        "y"
      ],
      [
        "h",
        "ard"
      ],
      [
        "b",
        "it"
      ],
      [
        "re",
        "ally"
      ],
      [
        "c",
        "ial"
      ],
      [
        "i",
        "ble"
      ],
      [
        "hum",
        "an"
      ],
      [
        "b",
        "ig"
      ],
      [
        "i",
        "gh"
      ],
      [
        "performan",
        "ces"
      ],
      [
        "e",
        "ver"
      ],
      [
        "wor",
        "th"
      ],
      [
        "t",
        "ru"
      ],
      [
        "a",
        "w"
      ],
      [
        "h",
        "ol"
      ],
      [
        "ate",
        "ly"
      ],
      [
        "wo",
        "od"
      ],
      [
        "f",
        "ir"
      ],
      [
        "v",
        "ed"
      ],
      [
        "film",
        "ma"
      ],
      [
        "c",
        "um"
      ],
      [
        "at",
        "t"
      ],
      [
        "s",
        "at"
      ],
      [
        "o",
        "c"
      ],
      [
        "g",
        "y"
      ],
      [
        "m",
        "ing"
      ],
      [
        "po",
        "wer"
      ],
      [
        "ig",
        "n"
      ],
      [
        "c",
        "ed"
      ],
      [
        "vi",
        "e"
      ],
      [
        "sur",
        "pr"
      ],
      [
        "li",
        "ght"
      ],
      [
        "a",
        "k"
      ],
      [
        "y",
        "ing"
      ],
      [
        "int",
        "el"
      ],
      [
        "ation",
        "s"
      ],
      [
        "p",
        "ie"
      ],
      [
        "ver",
        "s"
      ],
      [
        "ch",
        "o"
      ],
      [
        "at",
        "ure"
      ],
      [
        "st",
        "and"
      ],
      [
        "c",
        "ould"
      ],
      [
        "m",
        "on"
      ],
      [
        "s",
        "it"
      ],
      [
        "thr",
        "ill"
      ],
      [
        "ce",
        "pt"
      ],
      [
        "film",
        "s"
      ],
      [
        "pe",
        "o"
      ],
      [
        "loo",
        "k"
      ],
      [
        "th",
        "in"
      ],
      [
        "p",
        "p"
      ],
      [
        "bet",
        "ter"
      ],
      [
        "su",
        "ch"
      ],
      [
        "tim",
        "es"
      ],
      [
        "st",
        "r"
      ],
      [
        "c",
        "i"
      ],
      [
        "sc",
        "en"
      ],
      [
        "audi",
        "ence"
      ],
      [
        "a",
        "v"
      ],
      [
        "ic",
        "ally"
      ],
      [
        "wh",
        "ile"
      ],
      [
        "com",
        "es"
      ],
      [
        "c",
        "au"
      ],
      [
        "ar",
        "k"
      ],
      [
        "b",
        "ack"
      ],
      [
        "is",
        "m"
      ],
      [
        "c",
        "ol"
      ],
      [
        "u",
        "ally"
      ],
      [
        "peo",
        "ple"
      ],
      [
        "be",
        "ing"
      ],
      [
        "a",
        "th"
      ],
      [
        "m",
        "ind"
      ],
      [
        "p",
        "ict"
      ],
      [
        "p",
        "or"
      ],
      [
        "re",
        "s"
      ],
      [
        "wh",
        "en"
      ],
      [
        "fir",
        "st"
      ],
      [
        "m",
        "em"
      ],
      [
        "er",
        "e"
      ],
      [
        "s",
        "we"
      ],
      [
        "st",
        "e"
      ],
      [
        "with",
        "out"
      ],
      [
        "of",
        "t"
      ],
      [
        "wor",
        "ld"
      ],
      [
        "bo",
        "th"
      ],
      [
        "c",
        "ut"
      ],
      [
        "ul",
        "l"
      ],
      [
        "k",
        "y"
      ],
      [
        "h",
        "igh"
      ],
      [
        "m",
        "is"
      ],
      [
        "ar",
        "ly"
      ],
      [
        "sh",
        "ould"
      ],
      [
        "m",
        "om"
      ],
      [
        "no",
        "thing"
      ],
      [
        "c",
        "ra"
      ],
      [
        "per",
        "i"
      ],
      [
        "intel",
        "li"
      ],
      [
        "sh",
        "ow"
      ],
      [
        "cau",
        "se"
      ],
      [
        "f",
        "t"
      ],
      [
        "act",
        "ing"
      ],
      [
        "sc",
        "ri"
      ],
      [
        "c",
        "ap"
      ],
      [
        "k",
        "ind"
      ],
      [
        "f",
        "ar"
      ],
      [
        "st",
        "ill"
      ],
      [
        "ou",
        "ght"
      ],
      [
        "m",
        "ed"
      ],
      [
        "k",
        "id"
      ],
      [
        "c",
        "are"
      ],
      [
        "entertain",
        "ing"
      ],
      [
        "w",
        "on"
      ],
      [
        "pe",
        "ct"
      ],
      [
        "wr",
        "it"
      ],
      [
        "n",
        "er"
      ],
      [
        "ant",
        "ic"
      ],
      [
        "l",
        "ed"
      ],
      [
        "b",
        "u"
      ],
      [
        "th",
        "o"
      ],
      [
        "at",
        "es"
      ],
      [
        "oft",
        "en"
      ],
      [
        "d",
        "re"
      ],
      [
        "c",
        "a"
      ],
      [
        "ar",
        "r"
      ],
      [
        "surpr",
        "is"
      ],
      [
        "h",
        "or"
[...]
